#include "magic_wand_model_data.h"

// We need to keep the data array aligned on some architectures.
#ifdef __has_attribute
#define HAVE_ATTRIBUTE(x) __has_attribute(x)
#else
#define HAVE_ATTRIBUTE(x) 0
#endif
#if HAVE_ATTRIBUTE(aligned) || (defined(__GNUC__) && !defined(__clang__))
#define DATA_ALIGN_ATTRIBUTE __attribute__((aligned(4)))
#else
#define DATA_ALIGN_ATTRIBUTE
#endif

const unsigned char g_magic_wand_model_data[] DATA_ALIGN_ATTRIBUTE = {
  0x1c, 0x00, 0x00, 0x00, 0x54, 0x46, 0x4c, 0x33, 0x14, 0x00, 0x20, 0x00,
  0x04, 0x00, 0x08, 0x00, 0x0c, 0x00, 0x10, 0x00, 0x14, 0x00, 0x00, 0x00,
  0x18, 0x00, 0x1c, 0x00, 0x14, 0x00, 0x00, 0x00, 0x03, 0x00, 0x00, 0x00,
  0x18, 0x00, 0x00, 0x00, 0x2c, 0x00, 0x00, 0x00, 0xd8, 0x00, 0x00, 0x00,
  0x2c, 0x00, 0x00, 0x00, 0x80, 0x00, 0x00, 0x00, 0x78, 0x00, 0x00, 0x00,
  0x05, 0x00, 0x00, 0x00, 0x28, 0x07, 0x00, 0x00, 0x44, 0x06, 0x00, 0x00,
  0xbc, 0x03, 0x00, 0x00, 0xf8, 0x02, 0x00, 0x00, 0xac, 0x01, 0x00, 0x00,
  0x01, 0x00, 0x00, 0x00, 0xd0, 0x00, 0x00, 0x00, 0x14, 0x00, 0x00, 0x00,
  0x98, 0x32, 0x00, 0x00, 0x94, 0x32, 0x00, 0x00, 0x8c, 0x31, 0x00, 0x00,
  0xd8, 0x30, 0x00, 0x00, 0x30, 0x30, 0x00, 0x00, 0xbc, 0x2f, 0x00, 0x00,
  0x50, 0x2f, 0x00, 0x00, 0x00, 0x13, 0x00, 0x00, 0xec, 0x11, 0x00, 0x00,
  0x10, 0x10, 0x00, 0x00, 0xb4, 0x07, 0x00, 0x00, 0x6c, 0x32, 0x00, 0x00,
  0x68, 0x32, 0x00, 0x00, 0x64, 0x32, 0x00, 0x00, 0x60, 0x32, 0x00, 0x00,
  0x5c, 0x32, 0x00, 0x00, 0x58, 0x32, 0x00, 0x00, 0x54, 0x32, 0x00, 0x00,
  0x50, 0x32, 0x00, 0x00, 0x3c, 0x00, 0x00, 0x00, 0x00, 0x00, 0x00, 0x00,
  0x01, 0x00, 0x00, 0x00, 0x0c, 0x00, 0x00, 0x00, 0x08, 0x00, 0x0c, 0x00,
  0x04, 0x00, 0x08, 0x00, 0x08, 0x00, 0x00, 0x00, 0x08, 0x00, 0x00, 0x00,
  0x13, 0x00, 0x00, 0x00, 0x13, 0x00, 0x00, 0x00, 0x6d, 0x69, 0x6e, 0x5f,
  0x72, 0x75, 0x6e, 0x74, 0x69, 0x6d, 0x65, 0x5f, 0x76, 0x65, 0x72, 0x73,
  0x69, 0x6f, 0x6e, 0x00, 0xfa, 0xce, 0xff, 0xff, 0x04, 0x00, 0x00, 0x00,
  0x10, 0x00, 0x00, 0x00, 0x31, 0x2e, 0x35, 0x2e, 0x30, 0x00, 0x00, 0x00,
  0x00, 0x00, 0x00, 0x00, 0x00, 0x00, 0x00, 0x00, 0x0f, 0x00, 0x00, 0x00,
  0x4d, 0x4c, 0x49, 0x52, 0x20, 0x43, 0x6f, 0x6e, 0x76, 0x65, 0x72, 0x74,
  0x65, 0x64, 0x2e, 0x00, 0x00, 0x00, 0x0e, 0x00, 0x18, 0x00, 0x04, 0x00,
  0x08, 0x00, 0x0c, 0x00, 0x10, 0x00, 0x14, 0x00, 0x0e, 0x00, 0x00, 0x00,
  0x14, 0x00, 0x00, 0x00, 0x5c, 0x00, 0x00, 0x00, 0x60, 0x00, 0x00, 0x00,
  0x64, 0x00, 0x00, 0x00, 0x84, 0x00, 0x00, 0x00, 0x12, 0x00, 0x00, 0x00,
  0x58, 0x31, 0x00, 0x00, 0xe8, 0x30, 0x00, 0x00, 0x44, 0x30, 0x00, 0x00,
  0x9c, 0x2f, 0x00, 0x00, 0xf4, 0x2e, 0x00, 0x00, 0x94, 0x2e, 0x00, 0x00,
  0x2c, 0x2e, 0x00, 0x00, 0xd8, 0x11, 0x00, 0x00, 0xbc, 0x10, 0x00, 0x00,
  0xe0, 0x0e, 0x00, 0x00, 0x0c, 0x06, 0x00, 0x00, 0x28, 0x05, 0x00, 0x00,
  0xe8, 0x03, 0x00, 0x00, 0x3c, 0x03, 0x00, 0x00, 0x98, 0x02, 0x00, 0x00,
  0xd4, 0x01, 0x00, 0x00, 0x10, 0x01, 0x00, 0x00, 0x84, 0x00, 0x00, 0x00,
  0x01, 0x00, 0x00, 0x00, 0x00, 0x00, 0x00, 0x00, 0x01, 0x00, 0x00, 0x00,
  0x11, 0x00, 0x00, 0x00, 0x08, 0x00, 0x00, 0x00, 0x74, 0x05, 0x00, 0x00,
  0x94, 0x04, 0x00, 0x00, 0x78, 0x03, 0x00, 0x00, 0xbc, 0x02, 0x00, 0x00,
  0x30, 0x02, 0x00, 0x00, 0x50, 0x01, 0x00, 0x00, 0xa8, 0x00, 0x00, 0x00,
  0x10, 0x00, 0x00, 0x00, 0x04, 0x00, 0x00, 0x00, 0x6d, 0x61, 0x69, 0x6e,
  0x00, 0x00, 0x00, 0x00, 0x7a, 0xff, 0xff, 0xff, 0x00, 0x00, 0x00, 0x09,
  0x04, 0x00, 0x00, 0x00, 0x1c, 0x00, 0x00, 0x00, 0x10, 0x00, 0x00, 0x00,
  0x04, 0x00, 0x00, 0x00, 0xf6, 0xcf, 0xff, 0xff, 0x00, 0x00, 0x80, 0x3f,
  0x01, 0x00, 0x00, 0x00, 0x11, 0x00, 0x00, 0x00, 0x01, 0x00, 0x00, 0x00,
  0x10, 0x00, 0x00, 0x00, 0xa0, 0xfa, 0xff, 0xff, 0x19, 0x00, 0x00, 0x00,
  0x00, 0x00, 0x00, 0x19, 0x01, 0x00, 0x00, 0x00, 0x84, 0xcf, 0xff, 0xff,
  0x14, 0x00, 0x00, 0x00, 0x12, 0x00, 0x00, 0x00, 0x18, 0x00, 0x00, 0x00,
  0x30, 0x00, 0x00, 0x00, 0x20, 0x00, 0x00, 0x00, 0x02, 0x00, 0x00, 0x00,
  0x01, 0x00, 0x00, 0x00, 0x03, 0x00, 0x00, 0x00, 0x08, 0x00, 0x00, 0x00,
  0x49, 0x64, 0x65, 0x6e, 0x74, 0x69, 0x74, 0x79, 0x00, 0x00, 0x00, 0x00,
  0x02, 0x00, 0x00, 0x00, 0xff, 0xff, 0xff, 0xff, 0x03, 0x00, 0x00, 0x00,
  0x68, 0xd0, 0xff, 0xff, 0x00, 0x00, 0x0e, 0x00, 0x18, 0x00, 0x08, 0x00,
  0x0c, 0x00, 0x10, 0x00, 0x07, 0x00, 0x14, 0x00, 0x0e, 0x00, 0x00, 0x00,
  0x00, 0x00, 0x00, 0x08, 0x03, 0x00, 0x00, 0x00, 0x18, 0x00, 0x00, 0x00,
  0x0c, 0x00, 0x00, 0x00, 0x04, 0x00, 0x00, 0x00, 0x84, 0xcf, 0xff, 0xff,
  0x01, 0x00, 0x00, 0x00, 0x10, 0x00, 0x00, 0x00, 0x03, 0x00, 0x00, 0x00,
  0x0f, 0x00, 0x00, 0x00, 0x07, 0x00, 0x00, 0x00, 0x04, 0x00, 0x00, 0x00,
  0x0c, 0xd0, 0xff, 0xff, 0x14, 0x00, 0x00, 0x00, 0x11, 0x00, 0x00, 0x00,
  0x18, 0x00, 0x00, 0x00, 0x5c, 0x00, 0x00, 0x00, 0x4c, 0x00, 0x00, 0x00,
  0x02, 0x00, 0x00, 0x00, 0x01, 0x00, 0x00, 0x00, 0x03, 0x00, 0x00, 0x00,
  0x34, 0x00, 0x00, 0x00, 0x73, 0x65, 0x71, 0x75, 0x65, 0x6e, 0x74, 0x69,
  0x61, 0x6c, 0x2f, 0x64, 0x65, 0x6e, 0x73, 0x65, 0x5f, 0x31, 0x2f, 0x4d,
  0x61, 0x74, 0x4d, 0x75, 0x6c, 0x3b, 0x73, 0x65, 0x71, 0x75, 0x65, 0x6e,
  0x74, 0x69, 0x61, 0x6c, 0x2f, 0x64, 0x65, 0x6e, 0x73, 0x65, 0x5f, 0x31,
  0x2f, 0x42, 0x69, 0x61, 0x73, 0x41, 0x64, 0x64, 0x00, 0x00, 0x00, 0x00,
  0x02, 0x00, 0x00, 0x00, 0xff, 0xff, 0xff, 0xff, 0x03, 0x00, 0x00, 0x00,
  0x0c, 0xd0, 0xff, 0xff, 0xda, 0xfc, 0xff, 0xff, 0x00, 0x00, 0x00, 0x08,
  0x03, 0x00, 0x00, 0x00, 0x24, 0x00, 0x00, 0x00, 0x18, 0x00, 0x00, 0x00,
  0x0c, 0x00, 0x00, 0x00, 0x00, 0x00, 0x06, 0x00, 0x08, 0x00, 0x07, 0x00,
  0x06, 0x00, 0x00, 0x00, 0x00, 0x00, 0x00, 0x01, 0x01, 0x00, 0x00, 0x00,
  0x0f, 0x00, 0x00, 0x00, 0x03, 0x00, 0x00, 0x00, 0x0e, 0x00, 0x00, 0x00,
  0x06, 0x00, 0x00, 0x00, 0x03, 0x00, 0x00, 0x00, 0xe8, 0xfb, 0xff, 0xff,
  0x09, 0x00, 0x00, 0x00, 0x00, 0x00, 0x00, 0x09, 0x01, 0x00, 0x00, 0x00,
  0xcc, 0xd0, 0xff, 0xff, 0x14, 0x00, 0x00, 0x00, 0x10, 0x00, 0x00, 0x00,
  0x18, 0x00, 0x00, 0x00, 0x6c, 0x00, 0x00, 0x00, 0x5c, 0x00, 0x00, 0x00,
  0x02, 0x00, 0x00, 0x00, 0x01, 0x00, 0x00, 0x00, 0x10, 0x00, 0x00, 0x00,
  0x46, 0x00, 0x00, 0x00, 0x73, 0x65, 0x71, 0x75, 0x65, 0x6e, 0x74, 0x69,
  0x61, 0x6c, 0x2f, 0x64, 0x65, 0x6e, 0x73, 0x65, 0x2f, 0x4d, 0x61, 0x74,
  0x4d, 0x75, 0x6c, 0x3b, 0x73, 0x65, 0x71, 0x75, 0x65, 0x6e, 0x74, 0x69,
  0x61, 0x6c, 0x2f, 0x64, 0x65, 0x6e, 0x73, 0x65, 0x2f, 0x52, 0x65, 0x6c,
  0x75, 0x3b, 0x73, 0x65, 0x71, 0x75, 0x65, 0x6e, 0x74, 0x69, 0x61, 0x6c,
  0x2f, 0x64, 0x65, 0x6e, 0x73, 0x65, 0x2f, 0x42, 0x69, 0x61, 0x73, 0x41,
  0x64, 0x64, 0x00, 0x00, 0x02, 0x00, 0x00, 0x00, 0xff, 0xff, 0xff, 0xff,
  0x10, 0x00, 0x00, 0x00, 0xec, 0xd1, 0xff, 0xff, 0x00, 0x00, 0x0a, 0x00,
  0x10, 0x00, 0x04, 0x00, 0x08, 0x00, 0x0c, 0x00, 0x0a, 0x00, 0x00, 0x00,
  0x02, 0x00, 0x00, 0x00, 0x10, 0x00, 0x00, 0x00, 0x04, 0x00, 0x00, 0x00,
  0x01, 0x00, 0x00, 0x00, 0x0e, 0x00, 0x00, 0x00, 0x02, 0x00, 0x00, 0x00,
  0x0d, 0x00, 0x00, 0x00, 0x05, 0x00, 0x00, 0x00, 0xa8, 0xfc, 0xff, 0xff,
  0x16, 0x00, 0x00, 0x00, 0x00, 0x00, 0x00, 0x16, 0x01, 0x00, 0x00, 0x00,
  0x8c, 0xd1, 0xff, 0xff, 0x14, 0x00, 0x00, 0x00, 0x0f, 0x00, 0x00, 0x00,
  0x18, 0x00, 0x00, 0x00, 0x40, 0x00, 0x00, 0x00, 0x30, 0x00, 0x00, 0x00,
  0x02, 0x00, 0x00, 0x00, 0x01, 0x00, 0x00, 0x00, 0x70, 0x00, 0x00, 0x00,
  0x1a, 0x00, 0x00, 0x00, 0x73, 0x65, 0x71, 0x75, 0x65, 0x6e, 0x74, 0x69,
  0x61, 0x6c, 0x2f, 0x66, 0x6c, 0x61, 0x74, 0x74, 0x65, 0x6e, 0x2f, 0x52,
  0x65, 0x73, 0x68, 0x61, 0x70, 0x65, 0x00, 0x00, 0x02, 0x00, 0x00, 0x00,
  0xff, 0xff, 0xff, 0xff, 0x70, 0x00, 0x00, 0x00, 0x70, 0xd1, 0xff, 0xff,
  0x3e, 0xfe, 0xff, 0xff, 0x00, 0x00, 0x00, 0x05, 0x01, 0x00, 0x00, 0x00,
  0x38, 0x00, 0x00, 0x00, 0x2c, 0x00, 0x00, 0x00, 0x14, 0x00, 0x00, 0x00,
  0x00, 0x00, 0x0e, 0x00, 0x14, 0x00, 0x00, 0x00, 0x10, 0x00, 0x0c, 0x00,
  0x08, 0x00, 0x04, 0x00, 0x0e, 0x00, 0x00, 0x00, 0x03, 0x00, 0x00, 0x00,
  0x01, 0x00, 0x00, 0x00, 0x03, 0x00, 0x00, 0x00, 0x01, 0x00, 0x00, 0x00,
  0x01, 0x00, 0x00, 0x00, 0x0d, 0x00, 0x00, 0x00, 0x01, 0x00, 0x00, 0x00,
  0x0c, 0x00, 0x00, 0x00, 0x2c, 0xd2, 0xff, 0xff, 0x14, 0x00, 0x00, 0x00,
  0x0e, 0x00, 0x00, 0x00, 0x20, 0x00, 0x00, 0x00, 0x58, 0x00, 0x00, 0x00,
  0x40, 0x00, 0x00, 0x00, 0x04, 0x00, 0x00, 0x00, 0x01, 0x00, 0x00, 0x00,
  0x07, 0x00, 0x00, 0x00, 0x01, 0x00, 0x00, 0x00, 0x10, 0x00, 0x00, 0x00,
  0x22, 0x00, 0x00, 0x00, 0x73, 0x65, 0x71, 0x75, 0x65, 0x6e, 0x74, 0x69,
  0x61, 0x6c, 0x2f, 0x6d, 0x61, 0x78, 0x5f, 0x70, 0x6f, 0x6f, 0x6c, 0x69,
  0x6e, 0x67, 0x32, 0x64, 0x5f, 0x31, 0x2f, 0x4d, 0x61, 0x78, 0x50, 0x6f,
  0x6f, 0x6c, 0x00, 0x00, 0x04, 0x00, 0x00, 0x00, 0xff, 0xff, 0xff, 0xff,
  0x07, 0x00, 0x00, 0x00, 0x01, 0x00, 0x00, 0x00, 0x10, 0x00, 0x00, 0x00,
  0x28, 0xd2, 0xff, 0xff, 0x1a, 0xfe, 0xff, 0xff, 0x00, 0x00, 0x00, 0x01,
  0x24, 0x00, 0x00, 0x00, 0x18, 0x00, 0x00, 0x00, 0x04, 0x00, 0x00, 0x00,
  0x0c, 0xfe, 0xff, 0xff, 0x01, 0x00, 0x00, 0x00, 0x01, 0x00, 0x00, 0x00,
  0x00, 0x00, 0x00, 0x01, 0x01, 0x00, 0x00, 0x00, 0x0c, 0x00, 0x00, 0x00,
  0x03, 0x00, 0x00, 0x00, 0x0b, 0x00, 0x00, 0x00, 0x09, 0x00, 0x00, 0x00,
  0x02, 0x00, 0x00, 0x00, 0xd4, 0xd2, 0xff, 0xff, 0x14, 0x00, 0x00, 0x00,
  0x0d, 0x00, 0x00, 0x00, 0x20, 0x00, 0x00, 0x00, 0xb8, 0x00, 0x00, 0x00,
  0xa0, 0x00, 0x00, 0x00, 0x04, 0x00, 0x00, 0x00, 0x01, 0x00, 0x00, 0x00,
  0x15, 0x00, 0x00, 0x00, 0x01, 0x00, 0x00, 0x00, 0x10, 0x00, 0x00, 0x00,
  0x83, 0x00, 0x00, 0x00, 0x73, 0x65, 0x71, 0x75, 0x65, 0x6e, 0x74, 0x69,
  0x61, 0x6c, 0x2f, 0x63, 0x6f, 0x6e, 0x76, 0x32, 0x64, 0x5f, 0x31, 0x2f,
  0x52, 0x65, 0x6c, 0x75, 0x3b, 0x73, 0x65, 0x71, 0x75, 0x65, 0x6e, 0x74,
  0x69, 0x61, 0x6c, 0x2f, 0x63, 0x6f, 0x6e, 0x76, 0x32, 0x64, 0x5f, 0x31,
  0x2f, 0x42, 0x69, 0x61, 0x73, 0x41, 0x64, 0x64, 0x3b, 0x73, 0x65, 0x71,
  0x75, 0x65, 0x6e, 0x74, 0x69, 0x61, 0x6c, 0x2f, 0x63, 0x6f, 0x6e, 0x76,
  0x32, 0x64, 0x5f, 0x31, 0x2f, 0x43, 0x6f, 0x6e, 0x76, 0x32, 0x44, 0x3b,
  0x73, 0x65, 0x71, 0x75, 0x65, 0x6e, 0x74, 0x69, 0x61, 0x6c, 0x2f, 0x63,
  0x6f, 0x6e, 0x76, 0x32, 0x64, 0x5f, 0x31, 0x2f, 0x42, 0x69, 0x61, 0x73,
  0x41, 0x64, 0x64, 0x2f, 0x52, 0x65, 0x61, 0x64, 0x56, 0x61, 0x72, 0x69,
  0x61, 0x62, 0x6c, 0x65, 0x4f, 0x70, 0x2f, 0x72, 0x65, 0x73, 0x6f, 0x75,
  0x72, 0x63, 0x65, 0x00, 0x04, 0x00, 0x00, 0x00, 0xff, 0xff, 0xff, 0xff,
  0x15, 0x00, 0x00, 0x00, 0x01, 0x00, 0x00, 0x00, 0x10, 0x00, 0x00, 0x00,
  0x40, 0xd4, 0xff, 0xff, 0x00, 0x00, 0x0e, 0x00, 0x1a, 0x00, 0x08, 0x00,
  0x0c, 0x00, 0x10, 0x00, 0x07, 0x00, 0x14, 0x00, 0x0e, 0x00, 0x00, 0x00,
  0x00, 0x00, 0x00, 0x05, 0x01, 0x00, 0x00, 0x00, 0x3c, 0x00, 0x00, 0x00,
  0x30, 0x00, 0x00, 0x00, 0x14, 0x00, 0x00, 0x00, 0x00, 0x00, 0x0e, 0x00,
  0x18, 0x00, 0x17, 0x00, 0x10, 0x00, 0x0c, 0x00, 0x08, 0x00, 0x04, 0x00,
  0x0e, 0x00, 0x00, 0x00, 0x03, 0x00, 0x00, 0x00, 0x03, 0x00, 0x00, 0x00,
  0x03, 0x00, 0x00, 0x00, 0x03, 0x00, 0x00, 0x00, 0x00, 0x00, 0x00, 0x01,
  0x01, 0x00, 0x00, 0x00, 0x0b, 0x00, 0x00, 0x00, 0x01, 0x00, 0x00, 0x00,
  0x0a, 0x00, 0x00, 0x00, 0x2c, 0xff, 0xff, 0xff, 0x11, 0x00, 0x00, 0x00,
  0x00, 0x00, 0x00, 0x11, 0x01, 0x00, 0x00, 0x00, 0x10, 0xd4, 0xff, 0xff,
  0x14, 0x00, 0x00, 0x00, 0x0c, 0x00, 0x00, 0x00, 0x20, 0x00, 0x00, 0x00,
  0x58, 0x00, 0x00, 0x00, 0x40, 0x00, 0x00, 0x00, 0x04, 0x00, 0x00, 0x00,
  0x01, 0x00, 0x00, 0x00, 0x15, 0x00, 0x00, 0x00, 0x01, 0x00, 0x00, 0x00,
  0x08, 0x00, 0x00, 0x00, 0x20, 0x00, 0x00, 0x00, 0x73, 0x65, 0x71, 0x75,
  0x65, 0x6e, 0x74, 0x69, 0x61, 0x6c, 0x2f, 0x6d, 0x61, 0x78, 0x5f, 0x70,
  0x6f, 0x6f, 0x6c, 0x69, 0x6e, 0x67, 0x32, 0x64, 0x2f, 0x4d, 0x61, 0x78,
  0x50, 0x6f, 0x6f, 0x6c, 0x00, 0x00, 0x00, 0x00, 0x04, 0x00, 0x00, 0x00,
  0xff, 0xff, 0xff, 0xff, 0x15, 0x00, 0x00, 0x00, 0x01, 0x00, 0x00, 0x00,
  0x08, 0x00, 0x00, 0x00, 0x1c, 0xd5, 0xff, 0xff, 0x00, 0x00, 0x0e, 0x00,
  0x14, 0x00, 0x00, 0x00, 0x08, 0x00, 0x0c, 0x00, 0x07, 0x00, 0x10, 0x00,
  0x0e, 0x00, 0x00, 0x00, 0x00, 0x00, 0x00, 0x01, 0x30, 0x00, 0x00, 0x00,
  0x24, 0x00, 0x00, 0x00, 0x10, 0x00, 0x00, 0x00, 0x0c, 0x00, 0x10, 0x00,
  0x00, 0x00, 0x04, 0x00, 0x08, 0x00, 0x0f, 0x00, 0x0c, 0x00, 0x00, 0x00,
  0x01, 0x00, 0x00, 0x00, 0x01, 0x00, 0x00, 0x00, 0x00, 0x00, 0x00, 0x01,
  0x01, 0x00, 0x00, 0x00, 0x0a, 0x00, 0x00, 0x00, 0x03, 0x00, 0x00, 0x00,
  0x00, 0x00, 0x00, 0x00, 0x08, 0x00, 0x00, 0x00, 0x01, 0x00, 0x00, 0x00,
  0x0c, 0x00, 0x10, 0x00, 0x0b, 0x00, 0x00, 0x00, 0x0c, 0x00, 0x04, 0x00,
  0x0c, 0x00, 0x00, 0x00, 0x03, 0x00, 0x00, 0x00, 0x00, 0x00, 0x00, 0x03,
  0x01, 0x00, 0x00, 0x00, 0xf0, 0xd4, 0xff, 0xff, 0x14, 0x00, 0x00, 0x00,
  0x0b, 0x00, 0x00, 0x00, 0x20, 0x00, 0x00, 0x00, 0xb0, 0x00, 0x00, 0x00,
  0x98, 0x00, 0x00, 0x00, 0x04, 0x00, 0x00, 0x00, 0x01, 0x00, 0x00, 0x00,
  0x40, 0x00, 0x00, 0x00, 0x03, 0x00, 0x00, 0x00, 0x08, 0x00, 0x00, 0x00,
  0x7b, 0x00, 0x00, 0x00, 0x73, 0x65, 0x71, 0x75, 0x65, 0x6e, 0x74, 0x69,
  0x61, 0x6c, 0x2f, 0x63, 0x6f, 0x6e, 0x76, 0x32, 0x64, 0x2f, 0x52, 0x65,
  0x6c, 0x75, 0x3b, 0x73, 0x65, 0x71, 0x75, 0x65, 0x6e, 0x74, 0x69, 0x61,
  0x6c, 0x2f, 0x63, 0x6f, 0x6e, 0x76, 0x32, 0x64, 0x2f, 0x42, 0x69, 0x61,
  0x73, 0x41, 0x64, 0x64, 0x3b, 0x73, 0x65, 0x71, 0x75, 0x65, 0x6e, 0x74,
  0x69, 0x61, 0x6c, 0x2f, 0x63, 0x6f, 0x6e, 0x76, 0x32, 0x64, 0x2f, 0x43,
  0x6f, 0x6e, 0x76, 0x32, 0x44, 0x3b, 0x73, 0x65, 0x71, 0x75, 0x65, 0x6e,
  0x74, 0x69, 0x61, 0x6c, 0x2f, 0x63, 0x6f, 0x6e, 0x76, 0x32, 0x64, 0x2f,
  0x42, 0x69, 0x61, 0x73, 0x41, 0x64, 0x64, 0x2f, 0x52, 0x65, 0x61, 0x64,
  0x56, 0x61, 0x72, 0x69, 0x61, 0x62, 0x6c, 0x65, 0x4f, 0x70, 0x2f, 0x72,
  0x65, 0x73, 0x6f, 0x75, 0x72, 0x63, 0x65, 0x00, 0x04, 0x00, 0x00, 0x00,
  0xff, 0xff, 0xff, 0xff, 0x40, 0x00, 0x00, 0x00, 0x03, 0x00, 0x00, 0x00,
  0x08, 0x00, 0x00, 0x00, 0x44, 0xd5, 0xff, 0xff, 0x4e, 0xd6, 0xff, 0xff,
  0x04, 0x00, 0x00, 0x00, 0x00, 0x08, 0x00, 0x00, 0x3e, 0x67, 0xa4, 0xbc,
  0xbe, 0xc5, 0xfd, 0x3d, 0x9d, 0xb2, 0xcf, 0xbd, 0xf2, 0x8c, 0x27, 0x3e,
  0xa7, 0x5c, 0x1b, 0xbd, 0x1f, 0xb4, 0x8b, 0xbe, 0xb6, 0xcf, 0x99, 0xbd,
  0x8f, 0x29, 0xd2, 0x3e, 0xdc, 0xf4, 0x6e, 0x3d, 0x48, 0xe5, 0x85, 0x3d,
  0x36, 0x50, 0x08, 0x3e, 0x62, 0xf1, 0x28, 0xbd, 0x52, 0xf8, 0xea, 0x3d,
  0xd1, 0xd5, 0x90, 0xbe, 0xb2, 0xb3, 0x67, 0xbc, 0x1f, 0x85, 0x9e, 0xbd,
  0x85, 0xe8, 0xaf, 0x3d, 0xb4, 0x4b, 0x2e, 0x3d, 0xd8, 0xae, 0xdf, 0x3d,
  0xee, 0x66, 0x2c, 0x3d, 0x7a, 0xfd, 0x89, 0x3c, 0xd2, 0xd6, 0x94, 0xbe,
  0xa7, 0xa3, 0xe3, 0x3d, 0x9e, 0xc2, 0x06, 0xbe, 0xa9, 0xde, 0x9b, 0xbc,
  0x37, 0x7e, 0x52, 0xbd, 0x3f, 0x14, 0xbd, 0x3c, 0x0a, 0xf7, 0xb3, 0x3d,
  0x47, 0x6f, 0xeb, 0xbd, 0x63, 0x6d, 0x69, 0xbe, 0x7b, 0x27, 0x5c, 0x3e,
  0xe9, 0xd9, 0x26, 0xbd, 0xb6, 0x72, 0xae, 0x3e, 0x94, 0xe5, 0x3b, 0x3e,
  0xe5, 0x12, 0x96, 0xbe, 0x54, 0xe9, 0x43, 0xbc, 0xfb, 0xa1, 0x66, 0xbe,
  0xa1, 0x82, 0xd7, 0x3d, 0x97, 0xd9, 0x05, 0xbe, 0xfb, 0x19, 0xca, 0x3d,
  0xa4, 0x15, 0xdc, 0x3c, 0xb6, 0x93, 0x8a, 0x3d, 0x94, 0x31, 0x24, 0xbe,
  0x76, 0xc3, 0xa2, 0xbd, 0xd8, 0x7a, 0x17, 0x3e, 0x64, 0xd3, 0x00, 0xbe,
  0x3d, 0x8b, 0x84, 0xbe, 0x44, 0xe7, 0x1b, 0x3e, 0xef, 0xc6, 0x67, 0xbe,
  0x70, 0x55, 0x1e, 0xbe, 0xf4, 0x3d, 0x04, 0x3f, 0x15, 0x82, 0xad, 0xbe,
  0xf4, 0xff, 0xad, 0x3d, 0x7a, 0xbb, 0x8e, 0xbe, 0x52, 0x8c, 0x88, 0xbe,
  0x4f, 0xc4, 0x66, 0x3d, 0x2a, 0x33, 0xeb, 0xbe, 0xf0, 0xd7, 0xd2, 0xbd,
  0x78, 0xa4, 0xda, 0xbd, 0x91, 0x76, 0x84, 0xbd, 0x3b, 0x7c, 0xe0, 0x3c,
  0xb4, 0xf0, 0x32, 0xbe, 0x0f, 0xe3, 0xfc, 0xbe, 0xa3, 0x8c, 0x2b, 0xbe,
  0xbc, 0xbf, 0xee, 0xbd, 0x10, 0xb8, 0x62, 0x3e, 0xff, 0x89, 0x98, 0x3c,
  0x4c, 0x90, 0xd7, 0xbc, 0xb3, 0x43, 0xdf, 0x3c, 0x84, 0xc9, 0x8e, 0x3d,
  0x9c, 0x9f, 0xe3, 0x3b, 0xa0, 0xf6, 0xc0, 0x3e, 0x9f, 0x37, 0x81, 0xbd,
  0x65, 0x5f, 0xcb, 0xbd, 0xf5, 0x1a, 0xb0, 0xbc, 0x89, 0xc3, 0x96, 0x3e,
  0x12, 0x04, 0x62, 0xbd, 0x99, 0xd7, 0x5b, 0x3e, 0x42, 0x70, 0xb9, 0xbd,
  0x94, 0xdd, 0xd1, 0xbd, 0x0e, 0xb6, 0x8b, 0x3e, 0x0b, 0xc4, 0xa6, 0x3c,
  0x23, 0x06, 0x42, 0xbd, 0xdd, 0x19, 0x81, 0xbd, 0x8d, 0x96, 0x05, 0xbd,
  0x47, 0xa8, 0xd2, 0x3e, 0xba, 0xae, 0x49, 0xbe, 0x3f, 0x3b, 0xc3, 0x3b,
  0x90, 0x70, 0xa5, 0xbd, 0x4c, 0xc1, 0xca, 0xbd, 0x7f, 0x53, 0x1b, 0xbe,
  0x02, 0x4e, 0x36, 0xbe, 0x0b, 0x99, 0x05, 0xbe, 0x5d, 0x6a, 0x18, 0x3e,
  0x69, 0xbd, 0x19, 0xbe, 0xb1, 0x99, 0x12, 0xbe, 0xad, 0xb5, 0x09, 0xbc,
  0x3a, 0x4f, 0xdf, 0xbd, 0xc7, 0x86, 0x94, 0xbe, 0x53, 0x8f, 0x7d, 0x3d,
  0x45, 0xab, 0xa0, 0xbc, 0x2c, 0xa2, 0xcf, 0x3d, 0x49, 0xae, 0xfd, 0xbc,
  0xe3, 0xcf, 0xb8, 0x3d, 0xfa, 0x2d, 0xc0, 0xbd, 0xb3, 0x74, 0x42, 0x3f,
  0x9e, 0x39, 0x9b, 0xbd, 0x1b, 0x2b, 0x8a, 0xbd, 0x1c, 0xa8, 0x3c, 0xbe,
  0x47, 0xab, 0xb2, 0xbd, 0xfa, 0x07, 0xde, 0xbd, 0x73, 0xab, 0x98, 0x3d,
  0x16, 0x67, 0x94, 0xbc, 0xf2, 0x7f, 0x3d, 0xbd, 0xb6, 0xd9, 0x8b, 0xbd,
  0x50, 0xa0, 0xfc, 0xbd, 0x94, 0xd7, 0x48, 0x3d, 0x56, 0x99, 0x3b, 0xbe,
  0x05, 0x1f, 0xf9, 0xbd, 0xb7, 0x56, 0x50, 0x3e, 0xcd, 0x4c, 0x79, 0x3d,
  0xcd, 0xb0, 0xa6, 0xbc, 0x8f, 0xc4, 0x77, 0xbc, 0x07, 0x0d, 0xd3, 0xbd,
  0x41, 0x14, 0xb8, 0xbc, 0xe2, 0x85, 0x54, 0xbe, 0xe6, 0x36, 0xd4, 0xbd,
  0x30, 0xf5, 0x8a, 0x3d, 0x0b, 0xb0, 0x68, 0xbd, 0x4a, 0x95, 0x85, 0x3d,
  0x57, 0xa8, 0x12, 0xbf, 0xa3, 0x97, 0x72, 0xbe, 0x80, 0x61, 0x5c, 0xbe,
  0x3d, 0x6b, 0xd9, 0xbd, 0x31, 0x39, 0xe8, 0xbc, 0x1c, 0xde, 0x3e, 0xbe,
  0x26, 0x2f, 0xc7, 0x38, 0x5c, 0x9b, 0xf9, 0x3e, 0x39, 0x45, 0xee, 0xbe,
  0x12, 0xa1, 0x5a, 0x3e, 0x96, 0x16, 0xfe, 0xbe, 0x85, 0xaa, 0x68, 0xba,
  0x2b, 0x44, 0x76, 0xbd, 0x06, 0x53, 0x91, 0x3e, 0x94, 0x5c, 0xa0, 0x3b,
  0x5d, 0x8a, 0xe5, 0xbd, 0xcc, 0x5e, 0xc3, 0x3e, 0xf1, 0x8f, 0x22, 0xbe,
  0xc2, 0xef, 0xde, 0x3d, 0x95, 0x7e, 0x6d, 0xbe, 0xd8, 0x83, 0xba, 0xbd,
  0xc0, 0xf8, 0x9e, 0xbc, 0x40, 0xad, 0x7a, 0xbe, 0x94, 0x96, 0x08, 0xbe,
  0xbe, 0x5d, 0x84, 0xbd, 0x1c, 0x13, 0xa7, 0xbe, 0x2f, 0x32, 0x60, 0x3e,
  0x57, 0x02, 0x99, 0xbe, 0x1c, 0x5a, 0x47, 0xbe, 0x0d, 0xe3, 0x88, 0x3e,
  0x24, 0xb2, 0x97, 0x3e, 0x01, 0xbf, 0x2e, 0xbb, 0x95, 0x81, 0x6a, 0xbe,
  0x5a, 0xbf, 0x3e, 0xbe, 0x48, 0x50, 0x83, 0xbd, 0xed, 0xbe, 0x03, 0x3e,
  0x6e, 0xc0, 0xe1, 0xbe, 0xf7, 0x40, 0x1d, 0xbd, 0x0c, 0x6d, 0x13, 0x3e,
  0xf1, 0x3b, 0x86, 0xbc, 0x02, 0x64, 0xa8, 0x3d, 0x1a, 0x7d, 0x88, 0xbe,
  0x39, 0xaf, 0xc2, 0x3d, 0xa5, 0xe8, 0xdb, 0x3e, 0x11, 0xf7, 0x3e, 0xbe,
  0xc4, 0xfe, 0x62, 0xbe, 0x19, 0x3d, 0x50, 0xbe, 0x4c, 0x9d, 0xd1, 0xbc,
  0xbb, 0xed, 0x5d, 0xbe, 0x02, 0x8c, 0x87, 0xbe, 0x90, 0x6a, 0xef, 0xbc,
  0xff, 0x4a, 0xb3, 0xbd, 0x8f, 0xfd, 0xc5, 0xbc, 0x62, 0xb6, 0x8d, 0x3c,
  0x2e, 0xba, 0xc4, 0x3e, 0xa0, 0x5f, 0x8f, 0x3d, 0xcc, 0x61, 0xa1, 0xbd,
  0xa7, 0x5a, 0x4f, 0xbe, 0xe2, 0x44, 0x03, 0x3e, 0x06, 0xd4, 0x4f, 0x3e,
  0x97, 0xa9, 0x17, 0xbd, 0x51, 0x85, 0x3a, 0x3e, 0xd0, 0xba, 0x4d, 0xbe,
  0xb3, 0xaf, 0x3b, 0xbe, 0xd4, 0x0b, 0xbf, 0xbd, 0xb0, 0x4e, 0x0e, 0x3f,
  0xcf, 0x0b, 0xa0, 0xbe, 0x82, 0x6c, 0x4e, 0x3d, 0xe5, 0x2a, 0x03, 0xbe,
  0x21, 0x56, 0xc1, 0xbe, 0x81, 0x9b, 0x0d, 0xbe, 0x80, 0xca, 0xec, 0xbd,
  0xf5, 0xf0, 0xdf, 0xbd, 0xeb, 0x60, 0xfe, 0xbd, 0x60, 0x40, 0x57, 0xbe,
  0x85, 0xd5, 0xd1, 0xbd, 0x77, 0x7e, 0xe0, 0xbd, 0x7f, 0x62, 0x94, 0xbe,
  0x8a, 0xd8, 0xcf, 0x3c, 0xcb, 0x95, 0x4e, 0x3d, 0xae, 0xcb, 0xb1, 0xbd,
  0x5a, 0x57, 0x30, 0xbe, 0x07, 0xcd, 0x63, 0xbd, 0xd4, 0x9c, 0x27, 0x3e,
  0x0d, 0x5b, 0x9c, 0xbd, 0xa2, 0x5f, 0x8a, 0x3d, 0x0a, 0xff, 0x15, 0x3e,
  0x4f, 0x9b, 0x20, 0x3d, 0xf3, 0xee, 0x86, 0x3c, 0xb4, 0x35, 0x2b, 0xbe,
  0x8c, 0xb3, 0xb6, 0x3e, 0x21, 0x5b, 0x90, 0x3e, 0xc8, 0xac, 0x6f, 0x3e,
  0x07, 0xa1, 0xce, 0x3e, 0x04, 0xb5, 0x18, 0xbe, 0x5e, 0x16, 0xdd, 0x3d,
  0xb3, 0xd7, 0x9d, 0x3c, 0xb4, 0xb2, 0xd6, 0xbd, 0x5b, 0xe4, 0xc0, 0x3d,
  0x54, 0x1e, 0xcf, 0x3e, 0x94, 0x43, 0x09, 0x3d, 0x11, 0x7a, 0x15, 0x3f,
  0x97, 0x91, 0x19, 0xbe, 0xa3, 0xf2, 0xfe, 0xbe, 0x33, 0x4a, 0xc7, 0x3d,
  0xb3, 0x21, 0x09, 0x3b, 0xb0, 0x6a, 0xf4, 0x3c, 0x16, 0xef, 0x40, 0x3d,
  0x7e, 0xee, 0x3e, 0xbe, 0x8b, 0xd5, 0xc2, 0x3d, 0xec, 0xad, 0x36, 0xbe,
  0x05, 0x9a, 0x11, 0xbe, 0xac, 0xc1, 0xa6, 0xbd, 0x6b, 0x7f, 0x92, 0xbc,
  0x0a, 0x3e, 0xf9, 0xbd, 0xb8, 0x24, 0xe3, 0xbc, 0xc9, 0x28, 0xf6, 0xbd,
  0xb3, 0x34, 0xb8, 0xbe, 0xd7, 0xc4, 0x8d, 0xbd, 0xfe, 0xaa, 0x9a, 0xbd,
  0x12, 0x37, 0x0b, 0xbe, 0x71, 0xc4, 0x1c, 0xbd, 0x5a, 0xd0, 0xd9, 0xbe,
  0x78, 0x59, 0xad, 0xbd, 0xb4, 0xf5, 0x92, 0xbd, 0xb3, 0xa0, 0xf3, 0xbe,
  0xf0, 0x6b, 0xc6, 0xbe, 0x57, 0x07, 0x8a, 0xbe, 0x58, 0x6c, 0xd7, 0x3b,
  0xfe, 0x01, 0x8f, 0xbe, 0x32, 0x34, 0x09, 0x3d, 0x2c, 0x07, 0x35, 0xbe,
  0x0d, 0x32, 0x51, 0xbe, 0xfd, 0x83, 0xce, 0x3d, 0x70, 0xd5, 0xb2, 0xbd,
  0x77, 0x45, 0x51, 0x3e, 0x3e, 0xff, 0x15, 0xbf, 0x2b, 0x3d, 0x44, 0x3e,
  0x83, 0xc8, 0x38, 0xbf, 0xc2, 0x8d, 0x39, 0x3d, 0xc6, 0x25, 0xe8, 0xbd,
  0x33, 0x0e, 0x24, 0xbf, 0x97, 0x97, 0xad, 0x3e, 0x12, 0xdd, 0x31, 0x3d,
  0x92, 0xed, 0xd1, 0xbd, 0x40, 0xbd, 0xc2, 0x3d, 0x55, 0x44, 0xbd, 0xbd,
  0x8c, 0xd9, 0x81, 0x3e, 0x60, 0x8b, 0x3c, 0x3d, 0xa5, 0x1c, 0x9e, 0x3e,
  0xcb, 0xdf, 0xfe, 0xbd, 0x54, 0x16, 0xc7, 0xbd, 0x96, 0x7b, 0x28, 0xbe,
  0xce, 0x63, 0x13, 0xbe, 0x91, 0x16, 0x49, 0x3d, 0x6c, 0x87, 0xdf, 0xbe,
  0x69, 0x06, 0xaa, 0x3d, 0x13, 0x28, 0x4b, 0xbe, 0xbe, 0x50, 0x69, 0xbc,
  0x29, 0x0d, 0x42, 0xbf, 0x58, 0x44, 0x7b, 0xbe, 0xea, 0x08, 0x84, 0x3e,
  0xde, 0xa3, 0xad, 0xbe, 0x29, 0x2b, 0x7c, 0x3d, 0x4f, 0x7a, 0xb7, 0xba,
  0x6f, 0x1e, 0x6f, 0x3e, 0x9e, 0x69, 0x5f, 0x39, 0xac, 0x43, 0xaf, 0x3e,
  0xa0, 0x94, 0xa2, 0x3d, 0x59, 0x4f, 0xfb, 0xbd, 0xff, 0x9b, 0xa0, 0xbd,
  0xb8, 0x32, 0x51, 0xbd, 0x71, 0xec, 0x73, 0xb9, 0xc9, 0xe1, 0x41, 0x3e,
  0xa7, 0xc2, 0xa4, 0xbd, 0x9e, 0x63, 0xc5, 0xbc, 0x74, 0x09, 0xab, 0xbd,
  0x85, 0x6d, 0x09, 0xbe, 0x55, 0x0c, 0xd8, 0x3d, 0x00, 0x26, 0x0f, 0xbe,
  0x18, 0xee, 0x09, 0xbd, 0x34, 0x29, 0xe4, 0x3c, 0xc3, 0x9e, 0xb8, 0xbd,
  0x4c, 0x95, 0x1c, 0xbc, 0xca, 0xb8, 0x9a, 0xbd, 0x5a, 0xe9, 0xb7, 0xbd,
  0xd8, 0x65, 0xa5, 0xbd, 0x79, 0xaf, 0xd6, 0xbd, 0xdc, 0x54, 0x76, 0x3d,
  0x27, 0xa7, 0x53, 0xbe, 0xb6, 0x2f, 0x5e, 0xbd, 0x71, 0x4a, 0xd0, 0xbd,
  0xa5, 0xcc, 0x62, 0xbe, 0x2c, 0xb9, 0x1c, 0xbe, 0xd7, 0xdc, 0x93, 0xbc,
  0xa7, 0xec, 0x16, 0xbe, 0x14, 0xa8, 0x9c, 0xbc, 0x5e, 0x97, 0x32, 0x3e,
  0xd7, 0x60, 0x85, 0x3e, 0xc5, 0x8e, 0x97, 0xbd, 0x44, 0x69, 0xcf, 0xbc,
  0xdd, 0x89, 0xc8, 0xbc, 0x43, 0x0c, 0x4b, 0xbd, 0x8e, 0xef, 0x13, 0xbe,
  0x0a, 0xea, 0x4b, 0xbd, 0x8e, 0xcb, 0x9c, 0xbc, 0x8e, 0x26, 0xfd, 0xbd,
  0x96, 0x84, 0xab, 0xbd, 0xa2, 0x37, 0xfa, 0x3d, 0x72, 0x04, 0x85, 0x3d,
  0x28, 0x17, 0x8d, 0xbc, 0x20, 0x75, 0xe1, 0xbd, 0x81, 0x14, 0xf3, 0xbd,
  0xe4, 0x55, 0x50, 0xbe, 0x91, 0x3d, 0x90, 0xbd, 0xc0, 0x09, 0xc5, 0x3e,
  0x50, 0x5c, 0x0c, 0x3f, 0x07, 0x3f, 0x63, 0xbc, 0xf4, 0xf3, 0xe6, 0xbb,
  0x75, 0x0a, 0xab, 0xbd, 0xe8, 0x01, 0x7a, 0xbd, 0xc7, 0x7e, 0xbe, 0x3c,
  0x0b, 0xfc, 0xb7, 0x3e, 0x4d, 0x05, 0xed, 0xbd, 0xa2, 0x17, 0x80, 0xb9,
  0x35, 0x9b, 0x33, 0xbe, 0x55, 0x2a, 0xdb, 0x3c, 0x83, 0x34, 0x23, 0x3e,
  0x01, 0x6b, 0x85, 0xbe, 0x95, 0x33, 0x7b, 0x3e, 0x22, 0x97, 0x2f, 0x3d,
  0x5f, 0xc7, 0x68, 0x3e, 0xff, 0x68, 0x60, 0xbe, 0xda, 0xd2, 0xe5, 0xbd,
  0xb7, 0x64, 0x93, 0x3d, 0x24, 0x4f, 0x81, 0xbd, 0xb6, 0x56, 0x94, 0xbe,
  0x75, 0xbf, 0x88, 0x3d, 0xce, 0xda, 0xbc, 0x3d, 0x99, 0xfa, 0xf4, 0x3d,
  0x6f, 0x70, 0x42, 0xbe, 0x78, 0x15, 0x0d, 0xbe, 0x6e, 0xba, 0xb1, 0x3d,
  0xe1, 0x7c, 0xc3, 0x3d, 0x87, 0x04, 0x9a, 0xbe, 0x43, 0xf7, 0x86, 0x3d,
  0x00, 0x9d, 0xbf, 0x3e, 0xab, 0xa3, 0xca, 0xbd, 0xcd, 0xcb, 0x1e, 0xbe,
  0x71, 0x5e, 0x4b, 0xbe, 0xed, 0xf5, 0x24, 0x3d, 0x72, 0x18, 0x9b, 0x3e,
  0x33, 0x7e, 0x65, 0xbe, 0x12, 0x76, 0x42, 0x3d, 0x03, 0x01, 0x3e, 0xbe,
  0x1c, 0x96, 0xf3, 0xbd, 0xa8, 0xa6, 0x2b, 0xbc, 0x30, 0xc3, 0x8f, 0x3e,
  0xd9, 0xb5, 0xec, 0xbd, 0x80, 0x41, 0x2d, 0x3f, 0xfc, 0xdc, 0x4c, 0xbe,
  0xd1, 0x31, 0x13, 0x3d, 0x28, 0x37, 0x10, 0xbe, 0xfa, 0x56, 0x47, 0xbd,
  0x72, 0x9e, 0x0f, 0xbe, 0x86, 0x11, 0xc9, 0x3d, 0xc1, 0xe7, 0xa1, 0xbe,
  0xba, 0xc3, 0x88, 0xbc, 0xf0, 0x6f, 0x98, 0xbe, 0x52, 0xe9, 0x3b, 0xbe,
  0xfa, 0x73, 0x26, 0x3d, 0x81, 0x4d, 0x94, 0xbd, 0x02, 0xf5, 0x0a, 0xbe,
  0x7a, 0xdd, 0x76, 0x3d, 0x58, 0x75, 0x98, 0x3d, 0x0f, 0xdc, 0xea, 0xbc,
  0x65, 0x9a, 0x04, 0xbe, 0x3a, 0xae, 0x29, 0xbe, 0x6a, 0x28, 0x22, 0x3d,
  0x82, 0x38, 0xd7, 0xbc, 0xcc, 0x4e, 0x2f, 0xbe, 0xa8, 0x9c, 0xf6, 0xbd,
  0xef, 0xe5, 0xa6, 0xbc, 0x5d, 0x19, 0x2e, 0x3e, 0x00, 0xaf, 0x31, 0x3e,
  0x11, 0xe4, 0xa7, 0x3d, 0x14, 0x41, 0xe0, 0xbd, 0x42, 0xb5, 0x4e, 0xbf,
  0x72, 0x41, 0x2f, 0x3d, 0x33, 0x0e, 0xea, 0xbc, 0xbc, 0xbd, 0x5a, 0x3b,
  0xb2, 0xd8, 0x80, 0xbe, 0xaf, 0xa3, 0x07, 0xbd, 0x95, 0x37, 0x97, 0xbe,
  0xc8, 0xc1, 0x84, 0xbe, 0x25, 0x22, 0xd8, 0xbd, 0x50, 0x91, 0xde, 0xbd,
  0xd2, 0x24, 0x60, 0xbc, 0xbc, 0x68, 0xd4, 0xbd, 0x09, 0x1d, 0xa7, 0x3e,
  0xfb, 0xe1, 0x07, 0xbd, 0x67, 0x80, 0x68, 0xbe, 0x86, 0xc2, 0xef, 0xbe,
  0xfa, 0x41, 0x36, 0xbe, 0x0e, 0x25, 0x43, 0xbc, 0x83, 0x83, 0x6c, 0xbe,
  0xc6, 0xdc, 0xd9, 0xbd, 0xd6, 0x77, 0x25, 0xbf, 0xc2, 0x3d, 0xed, 0x3d,
  0x38, 0x97, 0x85, 0xbe, 0x9a, 0x9b, 0x99, 0xbe, 0x95, 0x73, 0xdd, 0xbe,
  0x4d, 0x91, 0x70, 0x3d, 0x7e, 0x52, 0x5d, 0xbe, 0x21, 0x4a, 0x04, 0x3e,
  0xb4, 0xa3, 0x81, 0x3d, 0x4f, 0x61, 0xc2, 0x3d, 0xbb, 0xde, 0x74, 0x3e,
  0xc4, 0xaa, 0x00, 0xbf, 0x64, 0xd0, 0x5a, 0xbe, 0x6f, 0x36, 0xe1, 0xbd,
  0x12, 0x88, 0xdf, 0xbe, 0xab, 0x58, 0x57, 0xbe, 0xe5, 0xc7, 0xe7, 0xbe,
  0xcd, 0x61, 0xe9, 0xbd, 0xee, 0x0f, 0x57, 0xbe, 0x1b, 0xb2, 0x04, 0xbe,
  0xd1, 0xe3, 0x74, 0xbe, 0xda, 0xb8, 0xb8, 0xbc, 0x3f, 0xe6, 0x88, 0xbe,
  0x9f, 0xba, 0x1a, 0x3c, 0xb0, 0x02, 0x41, 0x3e, 0x5a, 0x1e, 0x1d, 0x3d,
  0xda, 0x77, 0x66, 0x3e, 0x15, 0x53, 0x72, 0xbe, 0xed, 0x69, 0x58, 0x3d,
  0x5f, 0xa9, 0xba, 0x3c, 0xd7, 0xa4, 0x0b, 0x3e, 0x3c, 0x9a, 0x30, 0x3e,
  0x04, 0x63, 0x14, 0x3f, 0x07, 0xcd, 0x2f, 0xbd, 0x1e, 0x56, 0xc2, 0xbc,
  0x9c, 0x52, 0x50, 0xbe, 0x35, 0xd4, 0x53, 0x39, 0xd8, 0xc2, 0x98, 0xbd,
  0x46, 0x00, 0x48, 0x3e, 0x6d, 0x5f, 0x9b, 0xbe, 0xb9, 0x15, 0x8b, 0x3e,
  0x9c, 0x81, 0x62, 0xbe, 0x75, 0xed, 0x98, 0xbe, 0x48, 0xda, 0x08, 0x3e,
  0x37, 0x62, 0x8c, 0xbd, 0x22, 0x4b, 0x23, 0x3e, 0x2d, 0xa4, 0x2e, 0x3e,
  0x1d, 0xaf, 0x23, 0x3e, 0xcb, 0x82, 0x14, 0x3f, 0x83, 0x20, 0x88, 0xbc,
  0xf1, 0xaf, 0xf5, 0x3d, 0x5a, 0xe8, 0x3b, 0xbe, 0x92, 0x2c, 0x43, 0xbe,
  0x1d, 0x40, 0x8f, 0xbd, 0x70, 0x41, 0x2e, 0xbc, 0x00, 0xe8, 0xa7, 0xbe,
  0x31, 0x7c, 0xfe, 0x3c, 0x1e, 0x40, 0xa2, 0xbd, 0xa0, 0x5b, 0xa4, 0xbe,
  0xfd, 0x52, 0x9c, 0xbe, 0x98, 0x51, 0xfb, 0xbd, 0x18, 0x81, 0x76, 0xbd,
  0x38, 0x81, 0x8a, 0xbd, 0x54, 0x44, 0xba, 0xbe, 0xaa, 0x1f, 0x47, 0xbe,
  0x1e, 0xc2, 0x9d, 0xbd, 0x86, 0x58, 0x66, 0xbe, 0xae, 0xcf, 0x1d, 0xbd,
  0xc0, 0xe5, 0x51, 0xbd, 0x99, 0x6e, 0x9d, 0xbd, 0xe5, 0xbc, 0x7c, 0xbd,
  0xca, 0x91, 0xad, 0x3e, 0xa8, 0xa6, 0xb6, 0x3e, 0xa2, 0x81, 0x2d, 0x3c,
  0xe7, 0x79, 0x3e, 0x3d, 0x26, 0xde, 0xff, 0xff, 0x10, 0x00, 0x00, 0x00,
  0x0a, 0x00, 0x00, 0x00, 0x1c, 0x00, 0x00, 0x00, 0x38, 0x00, 0x00, 0x00,
  0x04, 0x00, 0x00, 0x00, 0x10, 0x00, 0x00, 0x00, 0x04, 0x00, 0x00, 0x00,
  0x01, 0x00, 0x00, 0x00, 0x08, 0x00, 0x00, 0x00, 0x1a, 0x00, 0x00, 0x00,
  0x73, 0x65, 0x71, 0x75, 0x65, 0x6e, 0x74, 0x69, 0x61, 0x6c, 0x2f, 0x63,
  0x6f, 0x6e, 0x76, 0x32, 0x64, 0x5f, 0x31, 0x2f, 0x43, 0x6f, 0x6e, 0x76,
  0x32, 0x44, 0x00, 0x00, 0x9c, 0xdd, 0xff, 0xff, 0xa6, 0xde, 0xff, 0xff,
  0x04, 0x00, 0x00, 0x00, 0x80, 0x01, 0x00, 0x00, 0xd1, 0x3d, 0xa9, 0xbd,
  0xf8, 0xd3, 0xab, 0xbe, 0x91, 0x5d, 0x21, 0x3e, 0x56, 0x88, 0x9d, 0x3e,
  0xf0, 0xc7, 0xcd, 0x3e, 0x8d, 0x80, 0x80, 0xbe, 0xc6, 0x46, 0x60, 0xbe,
  0xd8, 0x58, 0xf8, 0x3a, 0x6a, 0x74, 0x11, 0x3c, 0xe7, 0xe6, 0x65, 0x3e,
  0x71, 0x7c, 0xf3, 0x3c, 0x33, 0x80, 0x26, 0x3a, 0x06, 0x53, 0x2d, 0x3b,
  0x18, 0xb5, 0x54, 0xbc, 0x2c, 0xf8, 0x64, 0xbd, 0xf4, 0x7e, 0x0a, 0xbe,
  0xc9, 0x96, 0xbe, 0xbe, 0xd5, 0x36, 0xae, 0xbe, 0x45, 0xfb, 0x80, 0x3e,
  0x99, 0x19, 0xe0, 0x3e, 0xd7, 0x3a, 0xa2, 0x3e, 0x0f, 0xd8, 0x94, 0x3d,
  0x17, 0x73, 0xc3, 0x3d, 0x03, 0x72, 0x39, 0x3e, 0x73, 0x5b, 0x10, 0x3e,
  0x44, 0xa0, 0xc0, 0x3e, 0x95, 0x21, 0x43, 0x3e, 0x18, 0x4e, 0xd4, 0xbb,
  0x1d, 0x08, 0x48, 0x3d, 0x61, 0xc8, 0x70, 0x3c, 0x9f, 0x7e, 0xab, 0xbd,
  0xd3, 0xfb, 0x6f, 0xbe, 0x3a, 0x32, 0x12, 0xbc, 0x65, 0x3b, 0x08, 0xbe,
  0x65, 0xac, 0xcf, 0xbd, 0x22, 0x0a, 0xa8, 0x3d, 0x7b, 0xbb, 0x77, 0xbe,
  0x36, 0x1d, 0xc8, 0xbc, 0x11, 0x3e, 0x01, 0x3e, 0xd7, 0x1d, 0x53, 0xbe,
  0x7e, 0xde, 0xf9, 0x3b, 0x2c, 0x36, 0x28, 0x3b, 0x70, 0x3a, 0xc9, 0x3d,
  0xa7, 0x51, 0x9a, 0x3d, 0xcb, 0xda, 0x03, 0x3d, 0xf7, 0xfd, 0x8d, 0x3e,
  0x8f, 0xd9, 0x89, 0x3d, 0x06, 0x84, 0x93, 0x3c, 0xb0, 0xe4, 0x2b, 0x3e,
  0xbc, 0x5f, 0x13, 0x3e, 0x69, 0x02, 0x88, 0x3e, 0x6e, 0x8c, 0x69, 0xbd,
  0x63, 0x39, 0xca, 0x3c, 0x2d, 0x64, 0x05, 0xbb, 0xd9, 0x55, 0x26, 0x3d,
  0x4a, 0x55, 0x46, 0xbc, 0x8f, 0x43, 0xa9, 0xbe, 0x2e, 0x06, 0x48, 0x3b,
  0xe2, 0xfd, 0x43, 0xbe, 0x3a, 0x67, 0x2c, 0x3d, 0x03, 0x28, 0x86, 0xbe,
  0x0b, 0xe3, 0x1c, 0x3e, 0xdf, 0xee, 0x30, 0xbe, 0x92, 0x64, 0xed, 0xbd,
  0x7e, 0x94, 0x76, 0x3e, 0xab, 0x8a, 0x55, 0xbe, 0x96, 0x81, 0xa7, 0x3e,
  0xe7, 0x15, 0x21, 0xbe, 0x56, 0xee, 0x8b, 0xbb, 0xe5, 0xe6, 0xf9, 0x3d,
  0x49, 0x4a, 0x57, 0xbe, 0x9e, 0x61, 0xc0, 0x3e, 0x7b, 0xfb, 0xb6, 0x3d,
  0xac, 0x00, 0xb5, 0xbc, 0xc5, 0xa0, 0x25, 0x3c, 0x49, 0xc5, 0xb8, 0x3d,
  0x50, 0x18, 0x1c, 0xbd, 0xe4, 0x01, 0x1e, 0x3d, 0x7b, 0x01, 0x91, 0x3d,
  0x2e, 0xc4, 0x3f, 0xbd, 0x57, 0xe2, 0x47, 0x3d, 0xd3, 0xd3, 0x53, 0x3d,
  0x9c, 0xee, 0x5e, 0xbd, 0xba, 0xb7, 0x10, 0x3e, 0xdb, 0x06, 0xcd, 0x3d,
  0xa3, 0x58, 0x17, 0xbb, 0x59, 0xd8, 0xc7, 0x3c, 0x64, 0x0e, 0xbc, 0x3e,
  0x61, 0x9c, 0x85, 0x3e, 0xb2, 0x4c, 0x12, 0x3e, 0x5c, 0xde, 0xf8, 0xbd,
  0xf2, 0x3f, 0xa1, 0x3d, 0x90, 0xae, 0x8a, 0x3c, 0x83, 0x0e, 0x3a, 0xbe,
  0xc8, 0x8c, 0xaa, 0xbe, 0x31, 0xe1, 0x4d, 0xbe, 0xfe, 0xdf, 0xff, 0xff,
  0x10, 0x00, 0x00, 0x00, 0x09, 0x00, 0x00, 0x00, 0x1c, 0x00, 0x00, 0x00,
  0x38, 0x00, 0x00, 0x00, 0x04, 0x00, 0x00, 0x00, 0x08, 0x00, 0x00, 0x00,
  0x04, 0x00, 0x00, 0x00, 0x03, 0x00, 0x00, 0x00, 0x01, 0x00, 0x00, 0x00,
  0x18, 0x00, 0x00, 0x00, 0x73, 0x65, 0x71, 0x75, 0x65, 0x6e, 0x74, 0x69,
  0x61, 0x6c, 0x2f, 0x63, 0x6f, 0x6e, 0x76, 0x32, 0x64, 0x2f, 0x43, 0x6f,
  0x6e, 0x76, 0x32, 0x44, 0x00, 0x00, 0x00, 0x00, 0x74, 0xdf, 0xff, 0xff,
  0x7e, 0xe0, 0xff, 0xff, 0x04, 0x00, 0x00, 0x00, 0xc0, 0x00, 0x00, 0x00,
  0xc3, 0x84, 0x99, 0xbe, 0x61, 0x8f, 0x7d, 0x3e, 0x0c, 0x32, 0xb0, 0x3d,
  0xe2, 0xb0, 0x97, 0xbe, 0x9c, 0x92, 0xa7, 0x3d, 0x02, 0x00, 0xac, 0xbd,
  0x8e, 0xa3, 0x03, 0x3d, 0xd6, 0x1d, 0x0d, 0xbe, 0x08, 0xbd, 0x78, 0x3e,
  0x12, 0xcf, 0xb6, 0x3e, 0xb9, 0x8c, 0x73, 0x3c, 0xa5, 0x5c, 0xbc, 0x3d,
  0x26, 0xd5, 0xf7, 0xbd, 0x65, 0x1a, 0x36, 0xbd, 0xd4, 0x5c, 0xe6, 0x3d,
  0x51, 0xab, 0x64, 0x3e, 0x95, 0xf3, 0x96, 0xbe, 0x84, 0xa0, 0x97, 0x3e,
  0xe4, 0xdc, 0x6b, 0x3d, 0x2c, 0xae, 0x89, 0xbe, 0xf9, 0xba, 0x30, 0x3e,
  0x57, 0xbc, 0x38, 0xbc, 0xe6, 0x10, 0x15, 0x3e, 0x14, 0x86, 0x33, 0xbe,
  0x7c, 0x11, 0x99, 0x3e, 0x74, 0x67, 0x47, 0xbd, 0x34, 0xbf, 0xec, 0x3d,
  0xe7, 0x3b, 0x86, 0x3c, 0xcf, 0x38, 0x07, 0x3e, 0x3c, 0x96, 0x44, 0x3e,
  0xab, 0xb6, 0xc9, 0x3d, 0x38, 0xcf, 0x8e, 0x3e, 0x1d, 0x01, 0x80, 0xbe,
  0xa4, 0x0d, 0x44, 0x3e, 0xf2, 0x75, 0xbe, 0x3c, 0xfd, 0x91, 0x63, 0xbe,
  0xcf, 0x82, 0x4d, 0x3e, 0x0c, 0xf3, 0xba, 0x3c, 0xea, 0x10, 0x0d, 0xbd,
  0x4f, 0x38, 0x3d, 0xbe, 0xb6, 0x11, 0x5b, 0x3e, 0xfd, 0xb0, 0x9e, 0xbd,
  0x00, 0xa7, 0xbf, 0x3d, 0x89, 0xba, 0xf0, 0x3d, 0x11, 0xef, 0x84, 0x3d,
  0x16, 0xe2, 0x1f, 0xbe, 0xab, 0x9d, 0x95, 0x3d, 0x5d, 0xe5, 0x3b, 0x3e,
  0x16, 0xe1, 0xff, 0xff, 0x10, 0x00, 0x00, 0x00, 0x08, 0x00, 0x00, 0x00,
  0x14, 0x00, 0x00, 0x00, 0x30, 0x00, 0x00, 0x00, 0x02, 0x00, 0x00, 0x00,
  0x03, 0x00, 0x00, 0x00, 0x10, 0x00, 0x00, 0x00, 0x19, 0x00, 0x00, 0x00,
  0x73, 0x65, 0x71, 0x75, 0x65, 0x6e, 0x74, 0x69, 0x61, 0x6c, 0x2f, 0x64,
  0x65, 0x6e, 0x73, 0x65, 0x5f, 0x31, 0x2f, 0x4d, 0x61, 0x74, 0x4d, 0x75,
  0x6c, 0x00, 0x00, 0x00, 0x84, 0xe0, 0xff, 0xff, 0x8e, 0xe1, 0xff, 0xff,
  0x04, 0x00, 0x00, 0x00, 0x00, 0x1c, 0x00, 0x00, 0x4c, 0x07, 0x20, 0x3e,
  0xb1, 0x0e, 0x93, 0x3c, 0x16, 0x10, 0xa9, 0xbe, 0x05, 0x3b, 0x31, 0xbd,
  0x0c, 0x16, 0xeb, 0xbd, 0x51, 0x4a, 0x6b, 0x3e, 0x0b, 0xfb, 0x0a, 0xbe,
  0x61, 0xc2, 0x22, 0xbe, 0x2a, 0xf4, 0x21, 0x3c, 0xe7, 0xfc, 0x94, 0x3e,
  0x83, 0x65, 0xbd, 0xbc, 0xec, 0xce, 0x87, 0x3e, 0x8b, 0x53, 0x3b, 0xbe,
  0x49, 0x19, 0x1d, 0x3f, 0x38, 0x74, 0x8a, 0xbe, 0x94, 0x3c, 0xb6, 0x3d,
  0x56, 0x0d, 0xcc, 0xbd, 0x36, 0xb7, 0x6d, 0x3e, 0x65, 0x2f, 0x81, 0xbd,
  0x79, 0xa9, 0xa6, 0xbd, 0x38, 0x7b, 0xa7, 0x3d, 0x2d, 0x53, 0x01, 0x3f,
  0x03, 0x82, 0x3c, 0xbe, 0x22, 0x5a, 0x4a, 0xbe, 0xfa, 0x05, 0x3b, 0x3d,
  0xdf, 0x07, 0xa1, 0x3e, 0x4f, 0xb7, 0x65, 0xbe, 0x27, 0xc5, 0x0a, 0x3e,
  0x0f, 0x45, 0xe9, 0xbe, 0x09, 0x72, 0x3a, 0x3e, 0xd0, 0xef, 0xf2, 0x3d,
  0x6d, 0x4a, 0x0f, 0xbe, 0x42, 0x0f, 0x97, 0xbd, 0x1e, 0x3e, 0xd6, 0x3c,
  0x74, 0x1d, 0xe8, 0x3c, 0xae, 0x5e, 0x67, 0x3d, 0xf5, 0x47, 0x9a, 0x3e,
  0xda, 0x84, 0xa8, 0x3e, 0x55, 0x11, 0x2f, 0xbc, 0xe6, 0xce, 0xf5, 0x3b,
  0xe7, 0xc7, 0x62, 0x3e, 0x14, 0xa5, 0x81, 0x3e, 0xcb, 0xa5, 0xf1, 0x3d,
  0x1a, 0xfc, 0x98, 0x3d, 0xd8, 0x9b, 0xa5, 0xbd, 0xa2, 0x89, 0x94, 0x3e,
  0x48, 0x1c, 0x2c, 0x3e, 0x49, 0x32, 0xbb, 0xbd, 0x55, 0xbe, 0x2e, 0x3c,
  0xeb, 0x62, 0xdd, 0x3d, 0xe5, 0xe4, 0x32, 0x3e, 0xce, 0x3c, 0x80, 0x3e,
  0x41, 0x60, 0x05, 0x3e, 0xbb, 0xe4, 0x20, 0x3e, 0x99, 0x73, 0xd1, 0x3c,
  0x86, 0xef, 0x44, 0xbe, 0x4c, 0x0d, 0xaf, 0x3e, 0x4f, 0xb3, 0xc6, 0x3e,
  0x59, 0xee, 0x54, 0xbd, 0x63, 0xfe, 0x4c, 0x3e, 0x56, 0x0c, 0xfb, 0xb9,
  0xf9, 0x3a, 0xa0, 0x3e, 0xb7, 0x0d, 0xc5, 0x3c, 0x18, 0x88, 0x05, 0xbe,
  0xe1, 0x0d, 0xd7, 0x3d, 0x06, 0x20, 0xeb, 0x3c, 0x39, 0xc0, 0x44, 0xbe,
  0xc3, 0x15, 0x3c, 0x3d, 0x54, 0x9a, 0x0e, 0x3d, 0x17, 0x05, 0x7f, 0x3c,
  0x59, 0xa1, 0xa4, 0x3d, 0x63, 0x85, 0x25, 0x3e, 0x66, 0xc4, 0xb3, 0xbd,
  0xce, 0x6b, 0x93, 0x3e, 0x9c, 0xd0, 0xa2, 0xbe, 0xa3, 0x2b, 0x53, 0x3e,
  0x7c, 0x19, 0xcb, 0xbd, 0x11, 0x15, 0xd4, 0x3e, 0xaf, 0x3f, 0x7a, 0xbb,
  0xa5, 0xd0, 0x86, 0xbd, 0xd1, 0x8c, 0x01, 0xbe, 0xb8, 0xfe, 0x42, 0x3e,
  0x16, 0xcf, 0x4c, 0xbd, 0x1f, 0x4a, 0xa7, 0x3e, 0xfa, 0x5b, 0x90, 0xbd,
  0xe5, 0xe7, 0x57, 0x3e, 0x68, 0x22, 0xcb, 0xbe, 0x23, 0xd5, 0xaa, 0xbc,
  0xb4, 0x88, 0x6a, 0x3d, 0xf2, 0xf8, 0x5e, 0x3e, 0x15, 0x18, 0xc1, 0xbe,
  0x10, 0x5c, 0x51, 0x3e, 0xbb, 0xba, 0x32, 0xbe, 0xf4, 0xaa, 0x3f, 0x3e,
  0xda, 0xd7, 0xf1, 0xbd, 0x03, 0x4c, 0x0e, 0xbe, 0xe8, 0xab, 0x50, 0xbd,
  0xea, 0xf9, 0xdb, 0x3d, 0x2e, 0xfa, 0x2e, 0xbd, 0x6b, 0x5b, 0x89, 0xbd,
  0x4f, 0x52, 0x60, 0xbd, 0x96, 0xdb, 0x7d, 0x3e, 0x35, 0x5f, 0x51, 0xbe,
  0xc4, 0x72, 0x79, 0xbe, 0x99, 0xb2, 0x45, 0xbb, 0x05, 0xa3, 0x13, 0xbd,
  0xd6, 0x8f, 0x88, 0xbe, 0xb8, 0x33, 0x30, 0x3e, 0xbd, 0x67, 0x8e, 0xbe,
  0x4e, 0x03, 0x0c, 0x3f, 0xe5, 0x5c, 0x82, 0x3e, 0xb3, 0x67, 0x27, 0x3c,
  0xca, 0x69, 0x19, 0x3d, 0x29, 0x39, 0x00, 0x3e, 0xf7, 0x26, 0xc3, 0x3d,
  0x38, 0x39, 0x34, 0x3e, 0x47, 0xe6, 0x20, 0x3e, 0x27, 0xcd, 0xf4, 0xbd,
  0x05, 0x10, 0x0a, 0xbc, 0x74, 0x6c, 0xa7, 0x3d, 0x9d, 0x58, 0x78, 0x3e,
  0x5f, 0x89, 0xbf, 0x3e, 0x7a, 0xb6, 0x1b, 0x3c, 0xc0, 0x46, 0x8d, 0xbd,
  0xd3, 0x9b, 0x87, 0xbd, 0xdb, 0x2d, 0x17, 0xbe, 0x80, 0xea, 0x7d, 0x3d,
  0x4a, 0xe8, 0x59, 0xbc, 0xb3, 0xea, 0x27, 0xbd, 0x9c, 0x0e, 0xd1, 0xbc,
  0x3d, 0xe0, 0x60, 0x3d, 0xaf, 0x45, 0x37, 0xbc, 0x62, 0xa0, 0x50, 0x3e,
  0x86, 0xc4, 0x87, 0xbe, 0x50, 0x74, 0x7b, 0xbd, 0x4b, 0x6d, 0x50, 0x3e,
  0x62, 0x1f, 0x91, 0x3e, 0xf5, 0x4f, 0x9e, 0xbd, 0x49, 0x04, 0x8d, 0x3a,
  0xef, 0x64, 0x4d, 0x3c, 0x70, 0x49, 0x69, 0x3d, 0x79, 0x19, 0xac, 0xbc,
  0x7e, 0x09, 0x20, 0x3d, 0x2c, 0x58, 0xa1, 0x3d, 0x7c, 0xd7, 0x8d, 0xbc,
  0x56, 0x3f, 0xe3, 0xbd, 0xed, 0x4e, 0x0c, 0xbe, 0x55, 0x0c, 0xbd, 0xbd,
  0x66, 0x85, 0x9a, 0xbe, 0x8b, 0xf7, 0x59, 0xbe, 0xd1, 0x4a, 0x09, 0xbd,
  0x4f, 0x2b, 0xa1, 0x3c, 0xde, 0xd0, 0xca, 0x3d, 0x4d, 0x0b, 0x2c, 0x3c,
  0x7e, 0x36, 0xbd, 0xbd, 0xf5, 0x4a, 0x15, 0xbd, 0xcc, 0xe1, 0x46, 0x3d,
  0x43, 0x92, 0xe2, 0xbd, 0x64, 0x01, 0x24, 0xbd, 0x70, 0x81, 0x86, 0xbd,
  0x24, 0x6d, 0x1c, 0xbd, 0x02, 0x28, 0x05, 0xbd, 0x61, 0xe5, 0xea, 0xbd,
  0x1c, 0x71, 0xfa, 0xbc, 0xc4, 0xbf, 0x03, 0xbe, 0xd8, 0xd5, 0x81, 0xbe,
  0xef, 0x4a, 0xa1, 0xbd, 0xa0, 0x50, 0xb7, 0xbd, 0xbe, 0x70, 0x7d, 0xbd,
  0x34, 0xd0, 0xfe, 0xbd, 0x19, 0xa2, 0x4a, 0x3d, 0x70, 0xce, 0x15, 0xbe,
  0x96, 0x73, 0x8a, 0xbd, 0xf5, 0x08, 0xd5, 0xbd, 0x25, 0x58, 0x5b, 0x3e,
  0x16, 0x99, 0x2b, 0xbe, 0xed, 0xbb, 0xcb, 0x3a, 0x82, 0xf4, 0x93, 0x3d,
  0x7b, 0x2d, 0xf4, 0xbd, 0x78, 0xba, 0x25, 0x3e, 0x7e, 0x39, 0x1d, 0x3e,
  0xcb, 0xf2, 0x85, 0xbe, 0x1e, 0x15, 0xf7, 0x3d, 0xbc, 0xf0, 0x00, 0xbe,
  0x64, 0x59, 0xec, 0x3d, 0x05, 0xa1, 0x09, 0xbe, 0x75, 0xf6, 0x92, 0x3d,
  0xc8, 0x3d, 0xa5, 0x3c, 0xdf, 0x04, 0x82, 0x3d, 0x0e, 0x42, 0x43, 0xbe,
  0xd6, 0x4d, 0xfa, 0x3d, 0x1b, 0xbd, 0x8a, 0xbe, 0x74, 0xc0, 0x3b, 0xbc,
  0x90, 0xc8, 0xb4, 0x3d, 0xe5, 0xdc, 0x1f, 0x3d, 0xc2, 0x6e, 0xcf, 0x3d,
  0x82, 0xb8, 0x82, 0x3e, 0x17, 0xac, 0x70, 0xbd, 0xb4, 0x1c, 0xa2, 0x3d,
  0x6f, 0x6e, 0xe9, 0x3d, 0x61, 0xeb, 0x84, 0x3e, 0x94, 0x1e, 0x9b, 0x3d,
  0x1f, 0x6f, 0xf3, 0x3c, 0x26, 0xe2, 0x46, 0xbd, 0x35, 0xec, 0x18, 0xbd,
  0xc9, 0xa3, 0x46, 0x3e, 0xad, 0xd7, 0xda, 0xbd, 0x44, 0x22, 0x19, 0x3d,
  0x90, 0x82, 0xd7, 0x3c, 0x37, 0xcc, 0xb3, 0xbc, 0x7f, 0x44, 0xca, 0xbd,
  0xf2, 0xf9, 0x3b, 0xbd, 0x1c, 0xa4, 0x24, 0xbe, 0xaa, 0x83, 0xfe, 0x3c,
  0x00, 0xa7, 0xfe, 0xbd, 0x70, 0x07, 0xa2, 0xbd, 0xe8, 0xcc, 0x34, 0x3c,
  0x6c, 0x8c, 0xfd, 0xbc, 0x87, 0xbb, 0x69, 0xbd, 0xa1, 0x86, 0xb5, 0xbd,
  0xa1, 0x7b, 0xff, 0x3d, 0x70, 0x0f, 0x92, 0xbd, 0x42, 0x64, 0x22, 0xbd,
  0x0e, 0xb4, 0x62, 0x3d, 0x8f, 0x77, 0xf0, 0xbb, 0xaa, 0x2c, 0x58, 0xbe,
  0x13, 0xbe, 0x91, 0x3b, 0xf9, 0x79, 0xca, 0xbe, 0x3d, 0x1e, 0xa2, 0xbe,
  0x88, 0xc9, 0x0c, 0xbe, 0xe7, 0x8c, 0x0a, 0x3e, 0xf3, 0x7e, 0xa5, 0x3b,
  0x30, 0x21, 0x9e, 0xbc, 0xa1, 0x53, 0x04, 0xbe, 0xd3, 0x77, 0xb5, 0xbd,
  0xc4, 0x59, 0x0e, 0xbf, 0x2a, 0xaa, 0x26, 0x3c, 0x48, 0x69, 0x2f, 0x3d,
  0xfc, 0x47, 0x3b, 0x3e, 0x42, 0xca, 0x25, 0xbd, 0x4f, 0xf3, 0xd0, 0xbd,
  0xd8, 0x3d, 0x8c, 0xbd, 0xfa, 0x71, 0xe4, 0xbd, 0x25, 0xba, 0x32, 0xbd,
  0x23, 0x82, 0x1b, 0x3e, 0x45, 0xef, 0x53, 0xbe, 0x0a, 0x88, 0x7c, 0x3e,
  0xdc, 0x36, 0x8e, 0xbd, 0xac, 0x1e, 0x49, 0xbd, 0x3a, 0xd8, 0x81, 0xbc,
  0xd5, 0xe3, 0x33, 0x3d, 0x32, 0xc1, 0x82, 0xbe, 0x10, 0x1c, 0x3e, 0x3e,
  0x5d, 0xb8, 0xfe, 0xbd, 0x57, 0x34, 0x09, 0xbe, 0xd5, 0xcf, 0xf2, 0x3d,
  0x7e, 0x4f, 0x95, 0xbd, 0xa2, 0x24, 0x27, 0x3e, 0x8b, 0x66, 0x3a, 0x3e,
  0xf4, 0xba, 0x86, 0x3d, 0x4c, 0x29, 0xcf, 0x3d, 0xb3, 0x39, 0xcc, 0xbd,
  0x8f, 0xff, 0x7b, 0x3e, 0xa8, 0xc3, 0x29, 0x3e, 0x30, 0x0c, 0x4a, 0x3d,
  0x6e, 0xfb, 0x35, 0x3c, 0xfe, 0xe9, 0x93, 0x3d, 0x84, 0x75, 0xb7, 0xbe,
  0x8c, 0xfa, 0xef, 0x3d, 0x5a, 0x3e, 0x11, 0x3e, 0x8b, 0xdc, 0x89, 0x3e,
  0xb5, 0x44, 0xa7, 0xbe, 0x9a, 0x56, 0xba, 0x3d, 0x06, 0x18, 0xbd, 0xbb,
  0x57, 0x87, 0x2e, 0x3e, 0x88, 0xff, 0x73, 0x3e, 0x78, 0x07, 0x99, 0x3e,
  0x25, 0xb0, 0x11, 0x3d, 0xe6, 0xea, 0xe4, 0x3d, 0x6c, 0xc4, 0x84, 0x3e,
  0x03, 0xe9, 0x6f, 0x3d, 0xdc, 0xe5, 0x33, 0x3d, 0x48, 0xe3, 0xb2, 0xbc,
  0x25, 0x94, 0x05, 0xbf, 0x55, 0xb6, 0x1d, 0xbd, 0x06, 0x35, 0x71, 0x3e,
  0x55, 0x2a, 0xaf, 0x3e, 0xe6, 0x43, 0x2b, 0x3e, 0x99, 0x0d, 0x5c, 0x3c,
  0x82, 0x3e, 0x08, 0x3d, 0x91, 0xa1, 0x45, 0xbc, 0xd9, 0xbd, 0xde, 0xbe,
  0xad, 0xaf, 0x22, 0xbe, 0xc3, 0xa7, 0x48, 0xbe, 0x25, 0xb1, 0x3c, 0x3e,
  0x82, 0x06, 0x4b, 0x3e, 0xa5, 0xd1, 0x14, 0xbe, 0x52, 0xc4, 0x04, 0xbd,
  0x58, 0x86, 0xb7, 0xbd, 0xd6, 0x2c, 0x28, 0xbf, 0xfd, 0xa9, 0x52, 0x3e,
  0xa0, 0x8c, 0x04, 0x3f, 0x9d, 0xd3, 0x41, 0x3e, 0xf7, 0xa3, 0xe3, 0x3d,
  0x5f, 0xb5, 0x08, 0xbe, 0xa6, 0x02, 0x5e, 0xbe, 0x52, 0x11, 0x4c, 0x3c,
  0xac, 0x7c, 0xbe, 0xbe, 0x4f, 0xa3, 0x61, 0xbe, 0x47, 0xa6, 0x66, 0x3d,
  0x18, 0xe8, 0x03, 0x3e, 0xcb, 0x56, 0xaa, 0xbd, 0x14, 0xb5, 0x35, 0xbd,
  0x96, 0xff, 0x26, 0xbe, 0x16, 0xc4, 0xf0, 0xbc, 0x92, 0x9c, 0x76, 0xbe,
  0x75, 0xff, 0xa9, 0x3e, 0x98, 0x76, 0xd8, 0x3e, 0x03, 0xca, 0x09, 0x3f,
  0x3d, 0x9f, 0xe0, 0x3d, 0x46, 0xad, 0x11, 0xbe, 0x26, 0x6b, 0x74, 0xbe,
  0x44, 0xad, 0x60, 0x3c, 0xac, 0x97, 0xb3, 0x3d, 0xdb, 0x97, 0x9f, 0xbc,
  0xbb, 0x63, 0xe3, 0xbd, 0x4b, 0x9f, 0x5d, 0xbd, 0x94, 0x7b, 0x6d, 0x3d,
  0xab, 0xfb, 0x2e, 0xbd, 0x4f, 0x20, 0x75, 0x3d, 0xbd, 0x3c, 0x2c, 0xbe,
  0xbe, 0x82, 0x8e, 0xbd, 0x10, 0xe7, 0x8d, 0x3e, 0x85, 0x94, 0x62, 0xbe,
  0x7a, 0x11, 0x72, 0x3d, 0x4b, 0x56, 0x39, 0xbd, 0x0d, 0x0b, 0xb1, 0xbc,
  0x75, 0x08, 0x9d, 0xbd, 0xc6, 0x81, 0xf9, 0x3c, 0x85, 0x99, 0x30, 0xbe,
  0x94, 0x25, 0x7b, 0x3d, 0x08, 0x2c, 0x4a, 0xbe, 0x59, 0x9d, 0xd2, 0x3d,
  0x96, 0xe8, 0xbd, 0xbd, 0x5d, 0x89, 0x6e, 0xbe, 0x49, 0xcd, 0xec, 0xbd,
  0x60, 0x9b, 0x27, 0xbd, 0xa2, 0xb9, 0xb8, 0x3c, 0x25, 0x91, 0xc7, 0x3d,
  0x94, 0x06, 0x6d, 0x3c, 0x5e, 0x2f, 0x4d, 0x3d, 0x5a, 0xf1, 0xc7, 0xbe,
  0x4a, 0x7a, 0xd8, 0xbd, 0x89, 0x6f, 0x17, 0xbe, 0x42, 0x08, 0x4d, 0xba,
  0xf3, 0x67, 0x86, 0x3e, 0x99, 0xbe, 0x7f, 0x3d, 0xf0, 0x0b, 0x12, 0x3c,
  0x0e, 0x34, 0x20, 0xbe, 0x75, 0xaa, 0x7a, 0xbd, 0x5b, 0x60, 0x32, 0xbe,
  0xb2, 0xbc, 0xd2, 0x3d, 0x75, 0xa9, 0xc5, 0xbc, 0x4e, 0xcb, 0x20, 0x3e,
  0x05, 0x7e, 0xde, 0x3d, 0x14, 0x98, 0xc7, 0xbe, 0xfd, 0xb4, 0x38, 0x3e,
  0xea, 0xaa, 0xa6, 0xbd, 0x0e, 0x93, 0x02, 0x3d, 0x92, 0xf3, 0xa5, 0xbd,
  0xc4, 0x39, 0x3a, 0x3e, 0xeb, 0x1e, 0x99, 0x3e, 0xa9, 0xfb, 0xb3, 0x3d,
  0x86, 0x40, 0xaf, 0xbd, 0xbd, 0x03, 0x9d, 0xbc, 0x25, 0x38, 0xc3, 0x3d,
  0x5f, 0xb7, 0x86, 0x3d, 0x44, 0xb2, 0x84, 0x3e, 0x10, 0xdb, 0x23, 0xbe,
  0x2d, 0x05, 0xa3, 0x3e, 0xf1, 0x08, 0x38, 0xbb, 0xe5, 0x3b, 0x00, 0xbd,
  0x28, 0x9a, 0x81, 0x3e, 0x99, 0x21, 0x0d, 0xbc, 0xa6, 0x47, 0x50, 0xbb,
  0xdb, 0xb4, 0x2c, 0x3d, 0x01, 0x56, 0xdf, 0x3d, 0x6e, 0xe2, 0x62, 0x3e,
  0x60, 0x56, 0x59, 0x3d, 0x47, 0x39, 0x42, 0x3b, 0xbb, 0x3a, 0x0a, 0xbd,
  0x57, 0x52, 0x89, 0x3c, 0xee, 0x28, 0x89, 0x3d, 0x7e, 0x02, 0x16, 0x3e,
  0x41, 0x09, 0x99, 0xbd, 0x74, 0xa4, 0x8c, 0x3e, 0xd3, 0xdc, 0xc2, 0x3c,
  0x11, 0x21, 0xf1, 0xbd, 0x91, 0xee, 0x49, 0x3b, 0x80, 0xd1, 0x1d, 0x3c,
  0xd8, 0x0d, 0x91, 0xbe, 0x8a, 0x32, 0x63, 0x3e, 0xcc, 0x1f, 0x4e, 0x3d,
  0x73, 0x27, 0xc6, 0x3e, 0xe9, 0xa2, 0x83, 0x3d, 0xb4, 0x92, 0xa2, 0x3e,
  0x48, 0x32, 0x85, 0xbd, 0x95, 0x66, 0xf7, 0xbd, 0x19, 0x63, 0xa9, 0xbd,
  0x63, 0x9f, 0x38, 0xbe, 0x31, 0x38, 0x1d, 0x3d, 0x7a, 0xa8, 0x1e, 0xbd,
  0xb4, 0x7c, 0xe9, 0xbd, 0x44, 0xfd, 0x8b, 0xbe, 0x00, 0x8b, 0x22, 0x3d,
  0x16, 0xa5, 0xc7, 0xbd, 0x79, 0x6f, 0x8e, 0xbe, 0x9b, 0x9e, 0xe8, 0xbd,
  0x81, 0xf5, 0xa5, 0x3d, 0x3d, 0xe7, 0xdf, 0x3d, 0x74, 0x49, 0x39, 0xbe,
  0x87, 0xdc, 0xf1, 0x3d, 0xa2, 0xd3, 0x34, 0x3d, 0x04, 0xd8, 0x3c, 0xbe,
  0x07, 0xf6, 0xc2, 0xbd, 0x7a, 0x32, 0xa3, 0xbd, 0x70, 0x6b, 0x9e, 0xbd,
  0xa4, 0x98, 0xbe, 0x3e, 0xe6, 0x9a, 0xdc, 0x3d, 0x9a, 0xfd, 0x50, 0xbe,
  0x99, 0x8a, 0x48, 0xbe, 0xee, 0x9d, 0xd5, 0xbc, 0x39, 0xfb, 0xe1, 0xbd,
  0xcf, 0x2e, 0x44, 0xbc, 0x80, 0x15, 0x48, 0xbe, 0x49, 0xed, 0x9e, 0x3d,
  0xfe, 0xaf, 0x05, 0xbe, 0x8f, 0x18, 0x01, 0xbe, 0xf5, 0x31, 0x77, 0xbe,
  0xe2, 0x3e, 0xd4, 0x3c, 0xc4, 0xce, 0x8c, 0xbe, 0xfb, 0x6d, 0x1d, 0x3e,
  0x72, 0x70, 0x0f, 0xbe, 0xbb, 0xce, 0xd2, 0x3d, 0xa8, 0xb1, 0xcb, 0xbd,
  0x4f, 0x9f, 0xe9, 0xbc, 0x4a, 0x50, 0xe4, 0xbd, 0x12, 0x1f, 0x61, 0xbe,
  0x09, 0x10, 0x91, 0x3d, 0x2b, 0x3d, 0x91, 0x3d, 0x3d, 0xbf, 0x58, 0xbe,
  0x8e, 0x4e, 0xa1, 0xbe, 0x6a, 0x9f, 0x52, 0xbe, 0x69, 0x3d, 0x37, 0x3e,
  0xc1, 0x6d, 0x30, 0xbe, 0xdb, 0x6c, 0x6d, 0xbe, 0x5b, 0xef, 0x1e, 0xbf,
  0x40, 0xf2, 0x1e, 0xbe, 0x10, 0x19, 0x9e, 0x3d, 0x98, 0xe0, 0xe6, 0x3d,
  0x6e, 0x1e, 0x98, 0xba, 0xc7, 0x43, 0xa7, 0x3d, 0xda, 0x9d, 0x96, 0xbe,
  0xb3, 0xdf, 0x07, 0x3d, 0x6a, 0x22, 0x8c, 0x3d, 0xbe, 0xf0, 0xbf, 0xbd,
  0x96, 0x41, 0xba, 0xbd, 0x8a, 0xca, 0x4e, 0x3e, 0x46, 0x3f, 0xa0, 0xbd,
  0x8a, 0x64, 0x97, 0x3e, 0x98, 0x49, 0x7d, 0xbe, 0x61, 0xc8, 0x0d, 0xbe,
  0x73, 0xe6, 0x00, 0xbe, 0xca, 0x31, 0x3f, 0x3e, 0x59, 0x1a, 0xa9, 0x3d,
  0x7a, 0xf7, 0x86, 0x3e, 0x8d, 0x29, 0xb5, 0xbe, 0x27, 0x11, 0x99, 0x3e,
  0x9d, 0x5b, 0x89, 0x3e, 0xfe, 0xba, 0x43, 0xbe, 0x8e, 0x7a, 0xb9, 0x3d,
  0xf6, 0x50, 0x96, 0xbc, 0x1d, 0xca, 0x33, 0xbd, 0x36, 0xd8, 0x00, 0x3e,
  0x91, 0x65, 0xea, 0x3d, 0xfd, 0x66, 0x11, 0x3e, 0xc8, 0x83, 0x9b, 0xbe,
  0x4f, 0x51, 0x59, 0xbe, 0x91, 0x5e, 0x9e, 0x3e, 0xb5, 0x82, 0x1d, 0x3e,
  0x7b, 0xaa, 0x89, 0x3c, 0x3f, 0x23, 0xa5, 0x3d, 0x8a, 0x2e, 0x55, 0xbe,
  0x1a, 0xcb, 0xfd, 0x3e, 0x1b, 0xd4, 0x2a, 0xbd, 0x5b, 0x9e, 0x47, 0xbd,
  0xda, 0x45, 0x83, 0x3d, 0x33, 0xaf, 0x72, 0x3d, 0x60, 0x88, 0x8a, 0x3c,
  0x50, 0x28, 0xfd, 0x3a, 0xe0, 0x3a, 0x9e, 0x3e, 0x19, 0x8e, 0xc7, 0x3e,
  0x7c, 0x30, 0x78, 0xbd, 0x98, 0x45, 0x4d, 0xbd, 0xc0, 0x88, 0x94, 0x3d,
  0x77, 0x8e, 0xd7, 0x3c, 0xa0, 0x09, 0x03, 0x3d, 0xfa, 0xe4, 0xdd, 0x3d,
  0xca, 0xfa, 0x07, 0xbd, 0x9a, 0x3d, 0x29, 0x3e, 0x7c, 0xa3, 0xc0, 0xbd,
  0x9e, 0x1e, 0x91, 0xbd, 0xcc, 0x54, 0xa4, 0x3d, 0x4f, 0xd6, 0x13, 0xbe,
  0x73, 0xf6, 0x4a, 0xbd, 0xcb, 0xde, 0x43, 0x3e, 0xaf, 0x28, 0x43, 0x3e,
  0x8b, 0xb5, 0x0e, 0x3e, 0xb1, 0x2e, 0x97, 0xbe, 0x9a, 0xd9, 0x04, 0xbd,
  0x36, 0x60, 0xb1, 0x3c, 0xdf, 0xc6, 0xd4, 0x3d, 0xd9, 0x77, 0x4f, 0x3d,
  0xe9, 0x71, 0xf6, 0x3d, 0x57, 0xdb, 0x70, 0xbe, 0xeb, 0x46, 0xa5, 0x3e,
  0xd4, 0x0a, 0xde, 0xbd, 0x5d, 0x55, 0xed, 0xbd, 0xb0, 0x30, 0x65, 0x3d,
  0x0b, 0x82, 0xaa, 0xbd, 0xce, 0xdc, 0x5a, 0xbd, 0xb5, 0x73, 0x9e, 0x3d,
  0x47, 0xfc, 0xf7, 0xbd, 0xae, 0x63, 0x9e, 0xbd, 0xae, 0x29, 0xe0, 0xbe,
  0x83, 0x89, 0x6e, 0xbe, 0xb0, 0x3b, 0x10, 0xbe, 0xac, 0x61, 0x9a, 0x3e,
  0xde, 0xee, 0x91, 0xbd, 0x4d, 0x6f, 0x00, 0x3e, 0x38, 0xbc, 0xbf, 0xbd,
  0x7a, 0x5d, 0xe6, 0xbd, 0xba, 0xa0, 0x03, 0xbf, 0xf1, 0x09, 0xb6, 0xbe,
  0x19, 0x29, 0x1e, 0x3d, 0xe3, 0xbb, 0xf1, 0xbb, 0x08, 0x30, 0x4f, 0x3c,
  0xa2, 0xe3, 0x6a, 0xbd, 0x16, 0x17, 0x8e, 0xbd, 0xfc, 0xd8, 0x48, 0x3c,
  0xea, 0xba, 0x4a, 0xbd, 0x46, 0xec, 0x22, 0xbe, 0x84, 0x07, 0xef, 0xbc,
  0xf3, 0x4c, 0x51, 0x3c, 0x21, 0xef, 0xd7, 0xbd, 0x11, 0x5a, 0x22, 0xbc,
  0xcc, 0xce, 0x0c, 0xbe, 0xd5, 0x8b, 0xb1, 0x3e, 0x77, 0x7f, 0x25, 0xbc,
  0xf5, 0x5b, 0xab, 0xbb, 0x3e, 0xb3, 0x90, 0x3d, 0x02, 0x56, 0x6b, 0x3c,
  0x4f, 0xce, 0x14, 0xbf, 0x40, 0x7f, 0xcc, 0xbe, 0xa1, 0xb4, 0x84, 0xbe,
  0xe5, 0xd8, 0x72, 0x3e, 0x07, 0xfe, 0x08, 0xbf, 0xad, 0x57, 0x76, 0xbe,
  0x4a, 0x32, 0xa6, 0xbe, 0x92, 0x5a, 0x6b, 0xbd, 0x21, 0x37, 0x3a, 0x3e,
  0xaf, 0x4d, 0xac, 0x3d, 0x2f, 0x8a, 0x86, 0xbe, 0x64, 0x5c, 0x89, 0x3e,
  0xd2, 0x3c, 0xd3, 0xbe, 0x35, 0xf2, 0x83, 0x3d, 0x37, 0x16, 0x04, 0x3e,
  0x55, 0x72, 0x6c, 0x3d, 0xe1, 0xc4, 0x7a, 0xbe, 0x70, 0xac, 0x1a, 0x3e,
  0x21, 0xc7, 0x48, 0x3e, 0xfe, 0x70, 0x31, 0x3e, 0x8a, 0x9d, 0xd8, 0xbe,
  0xc4, 0x25, 0x56, 0xbe, 0xa5, 0xee, 0x81, 0xbc, 0xea, 0xa2, 0x1b, 0x3e,
  0x20, 0x91, 0x2d, 0x3e, 0x76, 0x7b, 0x56, 0x3e, 0xa6, 0x22, 0xe6, 0xbe,
  0x99, 0xc6, 0x1a, 0x3d, 0x3f, 0x3e, 0x64, 0x3e, 0x65, 0x48, 0x15, 0xbe,
  0x03, 0x99, 0x46, 0x3c, 0xee, 0x3e, 0x69, 0x3d, 0xbd, 0x58, 0x32, 0xbe,
  0xfc, 0x2c, 0xc1, 0x3e, 0x65, 0x98, 0xd3, 0x3e, 0xe9, 0x05, 0xce, 0x3d,
  0x44, 0xf2, 0xba, 0xbd, 0x02, 0xc2, 0x6c, 0xbe, 0x2b, 0x68, 0xc7, 0x3e,
  0x0d, 0xd0, 0xb7, 0x3e, 0xe0, 0x15, 0xed, 0x3c, 0x6a, 0xa9, 0x84, 0x3d,
  0xfb, 0x94, 0x5f, 0xbd, 0x19, 0x49, 0x54, 0x3e, 0x62, 0x51, 0x8c, 0x3e,
  0x22, 0x92, 0xb0, 0xbd, 0x89, 0x36, 0x9b, 0x3d, 0xd1, 0x42, 0xf3, 0x3d,
  0x77, 0xe7, 0x4c, 0xbe, 0xf5, 0xbf, 0x1a, 0x3e, 0x7c, 0x32, 0xbc, 0x3e,
  0x70, 0x45, 0xe4, 0x3e, 0xab, 0x01, 0xed, 0xbd, 0xf6, 0xda, 0xae, 0xbd,
  0x04, 0xe3, 0xca, 0x3d, 0xfc, 0xcf, 0xd2, 0x3e, 0x91, 0x46, 0xb7, 0x3d,
  0x30, 0x0c, 0x0d, 0x3e, 0xaf, 0x34, 0x54, 0x3d, 0x7a, 0xcc, 0xc3, 0x3d,
  0x9a, 0xb8, 0x25, 0x3d, 0xd2, 0x27, 0x8f, 0xbd, 0xb2, 0xe9, 0x9b, 0x3d,
  0xb7, 0x67, 0x56, 0x3d, 0x8b, 0x5f, 0x3a, 0xbe, 0x2c, 0x16, 0xd2, 0x3d,
  0xf6, 0x87, 0x9d, 0xbc, 0x56, 0x31, 0x37, 0x3e, 0x10, 0x43, 0x78, 0xbd,
  0x38, 0xb5, 0x6c, 0xbd, 0x1e, 0x2f, 0xa3, 0xbc, 0xa1, 0x41, 0x9e, 0x3e,
  0xa0, 0xb3, 0x35, 0xbd, 0xa1, 0xbd, 0x12, 0x3e, 0xd2, 0x4f, 0xfa, 0xbd,
  0xe3, 0x9e, 0x95, 0x3e, 0x9e, 0x39, 0x4a, 0x3c, 0xae, 0xa5, 0x25, 0xbc,
  0xd7, 0x0f, 0x1e, 0x3d, 0xd3, 0x97, 0x48, 0xbc, 0xf3, 0xe5, 0x96, 0xbd,
  0x26, 0xb6, 0xf6, 0x3d, 0x2d, 0x28, 0x0c, 0x3e, 0xa4, 0xdc, 0x0f, 0x3c,
  0xe3, 0x4d, 0x3f, 0xbf, 0x46, 0x18, 0x88, 0xbd, 0xa9, 0x54, 0xce, 0xbd,
  0xd3, 0x25, 0x64, 0x3e, 0xa5, 0xf0, 0xa6, 0xbd, 0xd7, 0x5a, 0x84, 0xbd,
  0xd4, 0x5f, 0x91, 0x3d, 0xc3, 0xa9, 0xb5, 0xbe, 0x86, 0xb3, 0xa4, 0xbe,
  0x34, 0x72, 0xbb, 0xbe, 0x5d, 0x18, 0x95, 0x3c, 0x9a, 0xcf, 0x36, 0x3d,
  0x77, 0x7e, 0x36, 0x3d, 0x6e, 0xd0, 0x34, 0xbe, 0x81, 0x64, 0xf1, 0xbd,
  0xe4, 0xf6, 0x4c, 0x3e, 0xc4, 0xb8, 0xda, 0xbd, 0x4d, 0x20, 0x9e, 0xbe,
  0x18, 0x8d, 0x96, 0xbd, 0xad, 0xd8, 0x0b, 0xbe, 0x03, 0xf0, 0x3b, 0xbe,
  0x41, 0xbf, 0xa1, 0x3d, 0x37, 0x6d, 0x8f, 0xbe, 0x6e, 0xdc, 0xb0, 0x3e,
  0xe2, 0x4c, 0x07, 0xbd, 0x45, 0x5e, 0x12, 0x3a, 0xef, 0xc2, 0x84, 0xbe,
  0x78, 0x5e, 0xc3, 0xbe, 0x02, 0xe0, 0x3a, 0xbe, 0x00, 0x21, 0xc5, 0xbd,
  0x81, 0x76, 0xb7, 0xbc, 0x50, 0xc2, 0x24, 0xbe, 0xa7, 0x73, 0xd7, 0x3d,
  0x08, 0xd9, 0xd6, 0xbe, 0x0d, 0x0c, 0x57, 0xbc, 0xe5, 0x41, 0x22, 0xbe,
  0xd8, 0xb4, 0x0b, 0xbf, 0x4e, 0xc6, 0xd2, 0xbd, 0x2d, 0xe7, 0x27, 0x3c,
  0x11, 0x94, 0xc9, 0xbe, 0x1c, 0x63, 0xc2, 0xbe, 0x95, 0xf5, 0xfc, 0xbe,
  0xa2, 0x32, 0xbd, 0xbd, 0x3b, 0xf4, 0x3a, 0xbe, 0xf3, 0xae, 0x9d, 0xbc,
  0x84, 0xb2, 0x21, 0xbe, 0x25, 0xac, 0x22, 0xbe, 0x40, 0x11, 0x1f, 0x3e,
  0x21, 0x37, 0xc2, 0xbd, 0xad, 0xad, 0x19, 0xbe, 0x2e, 0xe5, 0x3f, 0xbd,
  0x80, 0x4c, 0xa2, 0xbe, 0x15, 0xfa, 0x1d, 0xbf, 0xad, 0x9a, 0x37, 0xbd,
  0x69, 0x9a, 0x6c, 0xbe, 0x19, 0x6e, 0xfa, 0xbc, 0x69, 0x54, 0x89, 0xbe,
  0xcc, 0xd4, 0xcb, 0xbe, 0x2e, 0x92, 0x53, 0xbe, 0x7d, 0xa8, 0x68, 0xbe,
  0xfd, 0xfc, 0x42, 0xbe, 0xab, 0xaa, 0xb1, 0xbc, 0x93, 0x97, 0x9e, 0xbd,
  0x5a, 0x38, 0x85, 0x3c, 0x29, 0xfa, 0xa0, 0xbe, 0x24, 0x10, 0x48, 0xbe,
  0xc7, 0x25, 0x18, 0xbe, 0xa1, 0xef, 0x05, 0x3e, 0xce, 0xc5, 0x0b, 0xbf,
  0x2a, 0x30, 0x65, 0xbc, 0x52, 0xf2, 0x33, 0xbe, 0x18, 0xf0, 0x31, 0xbe,
  0x51, 0x47, 0x8d, 0xbe, 0x05, 0xf8, 0x12, 0xbf, 0xe3, 0xe4, 0xd2, 0xbd,
  0x18, 0x81, 0x87, 0xbe, 0x63, 0x1f, 0x2a, 0xbe, 0xa3, 0x41, 0xfb, 0xbd,
  0x23, 0xea, 0x13, 0xbe, 0x6b, 0xfc, 0x31, 0xbd, 0xda, 0x2e, 0xf9, 0xbc,
  0x4d, 0x91, 0x46, 0xbd, 0xa3, 0xd7, 0xb8, 0xbd, 0x8c, 0x1b, 0x37, 0x3e,
  0x8c, 0x34, 0xb5, 0xbd, 0x13, 0x4f, 0xa0, 0xbd, 0x3b, 0xc2, 0x35, 0x3c,
  0x99, 0xbe, 0x42, 0xbb, 0x45, 0xc9, 0x72, 0xbe, 0x23, 0x92, 0xde, 0xbe,
  0x59, 0xfe, 0xe3, 0xbd, 0x0f, 0x50, 0x78, 0x3d, 0x21, 0xf8, 0x27, 0xbe,
  0xe6, 0xf1, 0x29, 0x3e, 0xce, 0xc7, 0xda, 0x3e, 0x28, 0x7c, 0x62, 0xbd,
  0xbe, 0xfc, 0xa1, 0x3d, 0xb9, 0x67, 0xae, 0x3d, 0xf5, 0x0b, 0x72, 0x3e,
  0x71, 0x16, 0xd2, 0x3c, 0xa0, 0xa5, 0xde, 0x3d, 0xfe, 0x8c, 0x49, 0xbd,
  0xbf, 0x75, 0x9f, 0x3d, 0x9b, 0x59, 0xbd, 0xbe, 0xa4, 0xbe, 0x01, 0x3d,
  0x80, 0x7b, 0xed, 0xbe, 0x5c, 0xbf, 0xdc, 0x3c, 0xef, 0x3b, 0x8a, 0x3e,
  0x9e, 0xcb, 0x39, 0xbd, 0x85, 0x77, 0x24, 0x3e, 0x4d, 0x8c, 0x97, 0x3e,
  0xc1, 0xa5, 0x3e, 0xbe, 0x25, 0xfc, 0x09, 0x3d, 0x14, 0x2e, 0x4f, 0x3e,
  0x90, 0x6b, 0x87, 0x3e, 0x55, 0x17, 0x45, 0x3e, 0xeb, 0x2a, 0xed, 0x3d,
  0xe7, 0xd6, 0x4b, 0xbd, 0xae, 0x9c, 0x72, 0xbe, 0x87, 0x9e, 0xcd, 0xbe,
  0xf5, 0x1c, 0x86, 0xbe, 0x2d, 0x4c, 0x44, 0x3c, 0x59, 0xc7, 0x8f, 0x3d,
  0x50, 0x7e, 0x77, 0x3e, 0xb5, 0xd4, 0x82, 0x3d, 0x72, 0x26, 0x04, 0xbd,
  0x4c, 0x4b, 0x52, 0x3e, 0x55, 0xeb, 0x3e, 0x3e, 0x14, 0xf7, 0x30, 0x3c,
  0x67, 0xa3, 0xb3, 0x3c, 0xa8, 0x5b, 0x0a, 0x3e, 0x5e, 0x42, 0x92, 0x3d,
  0x42, 0xc0, 0x9b, 0x3e, 0x9c, 0xe8, 0xcb, 0x3c, 0xb8, 0xe9, 0xdf, 0xbd,
  0xf7, 0x2a, 0xd2, 0xbc, 0x0c, 0x3c, 0xf4, 0x3c, 0xdc, 0xac, 0xe4, 0x3c,
  0xd2, 0x95, 0x89, 0xbe, 0xdf, 0xfd, 0x9c, 0xbe, 0x23, 0xa0, 0x07, 0x3e,
  0x5b, 0x15, 0xd4, 0xbe, 0x48, 0xa3, 0x8d, 0xbe, 0x84, 0x91, 0x0d, 0xbd,
  0x66, 0x23, 0x8c, 0x3e, 0xcf, 0x15, 0x15, 0x3b, 0xc2, 0x2e, 0x86, 0x3e,
  0xae, 0x2e, 0x85, 0xbd, 0x75, 0xa3, 0x42, 0xbe, 0x8a, 0xf7, 0x85, 0xbe,
  0x45, 0x23, 0x69, 0x3e, 0x4f, 0x32, 0x34, 0xbe, 0xec, 0xdf, 0x9d, 0x3e,
  0x7d, 0xbe, 0x9d, 0x3d, 0x5d, 0x33, 0xe7, 0xbd, 0x55, 0x5a, 0xd9, 0xbd,
  0xd9, 0x36, 0xfa, 0xbd, 0x2c, 0x12, 0x77, 0xbe, 0x02, 0x66, 0x8f, 0x3e,
  0xab, 0x8e, 0x43, 0xbe, 0xb7, 0xb9, 0x80, 0x3e, 0x95, 0xa6, 0x81, 0xbd,
  0xd6, 0x89, 0x35, 0xbe, 0x0d, 0x65, 0xdd, 0x3c, 0x13, 0x70, 0x5e, 0xbe,
  0x43, 0xe4, 0x04, 0xbf, 0x10, 0xa1, 0x8a, 0x3d, 0xa2, 0x4d, 0x2d, 0x3e,
  0x86, 0xec, 0xae, 0x3b, 0xe2, 0x35, 0x05, 0xbc, 0x76, 0x36, 0x91, 0xbd,
  0x65, 0x3d, 0xbd, 0x3e, 0x7f, 0x23, 0x8c, 0xbe, 0x3c, 0xfa, 0x06, 0xbe,
  0xb3, 0x69, 0xf3, 0xbd, 0x67, 0xa5, 0x87, 0xbe, 0xed, 0x39, 0xcd, 0x3e,
  0xaa, 0x58, 0x00, 0x3f, 0x74, 0x0a, 0x90, 0xbe, 0xbc, 0xfc, 0x5a, 0xbd,
  0x02, 0x28, 0x26, 0x3e, 0x6a, 0x15, 0xbf, 0xbe, 0xab, 0x05, 0x26, 0x3e,
  0xab, 0x96, 0x00, 0x3e, 0xba, 0x17, 0xc6, 0x3e, 0x28, 0x96, 0x1b, 0xbe,
  0x30, 0x3d, 0x2f, 0xbd, 0x04, 0xe2, 0x9b, 0x3d, 0xe2, 0x16, 0xdc, 0x3d,
  0x94, 0x4c, 0x3d, 0x3d, 0x8c, 0xa8, 0x42, 0xbc, 0x21, 0xe4, 0x94, 0xbe,
  0xf4, 0x15, 0xf9, 0x3d, 0xf1, 0x56, 0x8a, 0x3e, 0x2f, 0x34, 0x85, 0xbe,
  0x72, 0x24, 0x48, 0xbd, 0xfe, 0xf0, 0xa6, 0x3e, 0xa1, 0x4d, 0x03, 0xbe,
  0xf7, 0x93, 0xb7, 0x3c, 0x48, 0xa5, 0x6b, 0x3e, 0x3a, 0x75, 0x87, 0x3e,
  0xa3, 0xf3, 0xfa, 0xbd, 0x0b, 0x1b, 0xd2, 0xbc, 0xe3, 0x43, 0x3e, 0xbd,
  0x78, 0xcc, 0xf2, 0x3d, 0xb9, 0x6c, 0x9c, 0xbe, 0xf4, 0x54, 0xbe, 0xbe,
  0xc8, 0xdd, 0x9f, 0xbe, 0x43, 0xed, 0x7c, 0x3d, 0x88, 0x2d, 0x81, 0x3e,
  0x83, 0x86, 0x00, 0xbe, 0x93, 0x23, 0x91, 0x3d, 0x94, 0x88, 0x33, 0x3d,
  0x40, 0x2e, 0x8d, 0xbe, 0xfb, 0xee, 0x68, 0x3e, 0x47, 0xad, 0x6f, 0x3e,
  0x63, 0x4b, 0xca, 0x3e, 0x4e, 0xdf, 0x1c, 0x3e, 0xd1, 0x13, 0x12, 0xbe,
  0xe7, 0x7d, 0x74, 0xbe, 0xa5, 0xcd, 0x2a, 0xbc, 0x69, 0xec, 0x20, 0xbe,
  0x3b, 0x10, 0xdb, 0xbd, 0xd4, 0xa7, 0xf9, 0xbd, 0x75, 0xcd, 0x42, 0x3e,
  0x56, 0x03, 0xd5, 0xbc, 0x76, 0x46, 0xc3, 0x3d, 0x51, 0xad, 0xe1, 0x3c,
  0x8a, 0x2f, 0x36, 0xbd, 0x9f, 0x53, 0xb6, 0xbe, 0xc9, 0x5c, 0xbf, 0x3e,
  0x8e, 0x0e, 0x04, 0x3e, 0x74, 0x34, 0x57, 0x3f, 0xb3, 0x58, 0x17, 0x3d,
  0x9d, 0xb8, 0x1a, 0xbe, 0x51, 0xe9, 0x5c, 0xbe, 0x7e, 0xf9, 0xa6, 0xbd,
  0xb0, 0x99, 0xd4, 0xbd, 0xf8, 0xf4, 0xf5, 0xbd, 0x5a, 0xd3, 0x74, 0xbe,
  0x61, 0x5e, 0x20, 0xbd, 0x96, 0x01, 0x40, 0x3c, 0xab, 0xe5, 0xae, 0xbd,
  0xc9, 0x9c, 0xa7, 0x3d, 0xbd, 0x63, 0x11, 0xbe, 0x0e, 0x3d, 0x6e, 0xbe,
  0x50, 0x09, 0x4b, 0x3e, 0xc2, 0x1b, 0x07, 0x3d, 0x5a, 0x8e, 0xa8, 0x3d,
  0xf5, 0xdd, 0x73, 0xbd, 0x4e, 0x75, 0xe0, 0xbc, 0x46, 0xe0, 0xa7, 0x3e,
  0x2d, 0x37, 0x11, 0xbc, 0x24, 0x6f, 0x8f, 0x3e, 0x56, 0xea, 0x66, 0x3e,
  0x79, 0x8d, 0x9a, 0xbd, 0x3e, 0x42, 0x70, 0x3c, 0x90, 0x68, 0x8f, 0x3d,
  0x5d, 0xff, 0x4e, 0x3e, 0x2f, 0x7a, 0x80, 0x3e, 0x1e, 0x5b, 0x8b, 0xbd,
  0x26, 0xe3, 0x6c, 0xbd, 0x1f, 0x05, 0x6e, 0xbe, 0x1b, 0xf9, 0xdc, 0x3d,
  0x66, 0x3c, 0xf7, 0xbd, 0x3e, 0x5b, 0xed, 0xbb, 0x7c, 0xad, 0xb2, 0xbd,
  0x57, 0x59, 0xa7, 0x3e, 0xe1, 0x4e, 0xec, 0xbc, 0x1d, 0x0d, 0x33, 0xbe,
  0xbc, 0x62, 0xcf, 0xbd, 0xbc, 0x28, 0xac, 0xbd, 0xc8, 0xd7, 0xb7, 0xbd,
  0x76, 0x74, 0x17, 0x3e, 0x0b, 0x47, 0xb6, 0x3e, 0x69, 0x01, 0x81, 0x3d,
  0xbc, 0x3f, 0x81, 0xbe, 0xfb, 0x28, 0x19, 0x3e, 0xdd, 0x1f, 0x36, 0xbd,
  0xf0, 0x3b, 0x1f, 0xbe, 0x7c, 0x94, 0x04, 0x3e, 0x5e, 0xcf, 0x06, 0x3d,
  0x52, 0xa5, 0xd9, 0xbd, 0xd6, 0xde, 0xa0, 0xbe, 0xb2, 0x69, 0xf8, 0xbd,
  0xdf, 0x76, 0xc5, 0xbe, 0xaa, 0x2d, 0x6c, 0xbe, 0x2e, 0xe7, 0x82, 0x3c,
  0xd8, 0xe9, 0xb9, 0xbe, 0x7a, 0xe5, 0xbe, 0xbd, 0xd6, 0xae, 0x4a, 0x3e,
  0xa4, 0x5c, 0x47, 0xbe, 0x50, 0x50, 0x22, 0xbe, 0xcb, 0xb7, 0xd8, 0xbc,
  0x2b, 0x50, 0x99, 0xbd, 0xe8, 0xa7, 0x41, 0x3c, 0x17, 0xd2, 0x85, 0x3d,
  0x13, 0x04, 0x0b, 0x3e, 0x57, 0x0d, 0xbb, 0xbd, 0xb9, 0x30, 0xed, 0xbd,
  0x3c, 0x65, 0xac, 0xbe, 0xab, 0xb2, 0x0a, 0xbf, 0x5a, 0x14, 0xc3, 0xbe,
  0x47, 0x1e, 0x87, 0xbe, 0x51, 0xd1, 0x0a, 0xbf, 0x25, 0xc2, 0xc1, 0xbe,
  0x30, 0x3e, 0xd8, 0xbd, 0x15, 0xe0, 0x9f, 0xbe, 0x25, 0x9f, 0x8a, 0xbe,
  0x97, 0x07, 0x3e, 0x3c, 0xd4, 0x89, 0xf9, 0xbd, 0xce, 0x0b, 0xd3, 0xbe,
  0x2e, 0xfc, 0xb0, 0xbe, 0xeb, 0x0e, 0xc9, 0xbe, 0x14, 0x06, 0xce, 0xbd,
  0x05, 0xb0, 0x05, 0xbf, 0x01, 0xb4, 0x7a, 0xbe, 0x2c, 0x4e, 0x1e, 0xbe,
  0xd3, 0x99, 0x80, 0x3e, 0x40, 0xaa, 0xd2, 0xbd, 0x95, 0x3e, 0x1f, 0x3e,
  0x84, 0x26, 0xac, 0xbe, 0xf8, 0x0c, 0x0b, 0x3e, 0xfc, 0x06, 0xc7, 0xbe,
  0x1c, 0xcc, 0x55, 0xbd, 0x5b, 0x2f, 0x11, 0x3e, 0x56, 0x72, 0x1f, 0xbe,
  0x88, 0xe9, 0xb4, 0xbe, 0xdc, 0xb7, 0xa3, 0x3e, 0x41, 0xfa, 0x1c, 0xbf,
  0x7b, 0x85, 0x00, 0xbe, 0x90, 0xb4, 0x7d, 0x3e, 0x8a, 0x2d, 0x62, 0xbe,
  0xd4, 0x5f, 0xab, 0x3e, 0xaf, 0x2b, 0xfc, 0x3e, 0xa6, 0x5c, 0xa6, 0xbd,
  0x53, 0xc4, 0x82, 0x3d, 0xdb, 0x4a, 0x0e, 0x3e, 0xe0, 0xb7, 0xa2, 0x3e,
  0x6d, 0x00, 0x70, 0x3e, 0xd1, 0xf4, 0x85, 0x3d, 0x03, 0x3d, 0xa3, 0xbd,
  0x0b, 0x9e, 0x87, 0xbe, 0xd0, 0x04, 0x70, 0xbe, 0x38, 0x7e, 0x4a, 0xbe,
  0xe1, 0x96, 0xa4, 0xbe, 0x21, 0x97, 0xd4, 0x3d, 0x64, 0x28, 0xb2, 0x3d,
  0x54, 0x64, 0xc2, 0x3c, 0xe0, 0xd4, 0x2f, 0x3c, 0xc9, 0x96, 0x8a, 0x3e,
  0xca, 0x13, 0x97, 0xbb, 0x4d, 0xe5, 0xef, 0x3a, 0xb1, 0xf6, 0x0d, 0x3e,
  0x06, 0x92, 0x7d, 0x3e, 0xd8, 0x1e, 0xc5, 0x3d, 0x46, 0xe9, 0x13, 0x3e,
  0xdf, 0xa5, 0x1d, 0x3d, 0x01, 0x65, 0xa2, 0xbd, 0x6f, 0xd3, 0x9b, 0xbd,
  0x73, 0xed, 0x8f, 0xbe, 0x13, 0x59, 0xa7, 0xbd, 0xe0, 0x48, 0x87, 0xbe,
  0x68, 0x59, 0x94, 0xbe, 0xc9, 0x38, 0xa0, 0xbe, 0x02, 0x56, 0x4f, 0xbe,
  0xb4, 0xde, 0x30, 0xbc, 0xa3, 0x6b, 0x9f, 0xbc, 0x07, 0xcb, 0x4d, 0xbd,
  0x32, 0x63, 0xd3, 0xbc, 0xfc, 0x66, 0xfd, 0xbd, 0xb1, 0x58, 0x03, 0x3d,
  0x4f, 0xcc, 0x0f, 0xbe, 0xe2, 0xe1, 0xae, 0x3d, 0xcf, 0xc0, 0x0e, 0x3e,
  0xa0, 0xbb, 0xd2, 0xbd, 0xdb, 0xa1, 0x30, 0xbe, 0xd8, 0x49, 0x21, 0xbe,
  0xd4, 0x4c, 0x28, 0xbe, 0xbf, 0x6d, 0x5a, 0xbc, 0xc7, 0xc8, 0xf5, 0xbd,
  0xd5, 0x89, 0xbd, 0x3d, 0xdc, 0xa1, 0xd5, 0x3d, 0x33, 0xea, 0xed, 0xbd,
  0xd4, 0x6c, 0xb3, 0x3d, 0x13, 0xc9, 0xa9, 0x3d, 0xa6, 0x4d, 0x7b, 0xbe,
  0xcd, 0xb6, 0x08, 0x3d, 0xc3, 0x2c, 0xdb, 0xbd, 0xe8, 0x64, 0xfc, 0x3c,
  0x93, 0xc1, 0xc1, 0xbd, 0xa8, 0x76, 0x61, 0xbe, 0xef, 0x9d, 0x4e, 0x3e,
  0x72, 0x68, 0xb8, 0x3d, 0x1c, 0x86, 0x8b, 0xbe, 0x34, 0x31, 0x41, 0x3d,
  0x71, 0x72, 0x08, 0xbe, 0xa3, 0x6d, 0x5e, 0xbe, 0xc1, 0x09, 0x20, 0xbe,
  0x24, 0x99, 0x1e, 0xbe, 0x18, 0x73, 0xaf, 0xbc, 0xe4, 0x6e, 0x59, 0xbe,
  0x88, 0x74, 0x12, 0xbe, 0x8d, 0xad, 0x44, 0x3e, 0x09, 0x24, 0x82, 0xbe,
  0x5e, 0xa7, 0x83, 0x3d, 0xe4, 0x9d, 0x07, 0xbe, 0xef, 0xec, 0x04, 0xbe,
  0x45, 0xfb, 0x36, 0xbe, 0x97, 0xf5, 0x12, 0x3e, 0x96, 0x09, 0x00, 0xbe,
  0x26, 0xef, 0x3c, 0xbe, 0x7c, 0x11, 0x98, 0xbd, 0xab, 0x98, 0x94, 0xbd,
  0xfd, 0xe0, 0x44, 0x3d, 0xce, 0x49, 0x6f, 0xbe, 0x24, 0x24, 0xbd, 0xbd,
  0x3a, 0xfd, 0x3f, 0xbe, 0x41, 0xb5, 0x1c, 0xbc, 0xfa, 0x46, 0xbb, 0xbd,
  0xe0, 0xb9, 0xef, 0xbc, 0x9e, 0x98, 0x5f, 0xbe, 0xda, 0xed, 0xe3, 0xbc,
  0x03, 0xc6, 0x63, 0xbe, 0xb2, 0x33, 0x92, 0xbd, 0xea, 0x1b, 0x76, 0xbe,
  0x73, 0x15, 0x5b, 0xbe, 0xb3, 0x8f, 0xd2, 0x3d, 0x78, 0xec, 0x68, 0xbd,
  0xbc, 0x27, 0x98, 0xbe, 0x2f, 0x45, 0x55, 0x3d, 0x9b, 0x3a, 0xa4, 0x3d,
  0x3e, 0x07, 0x91, 0xbe, 0x53, 0xd3, 0x6b, 0xbe, 0x41, 0xc6, 0x8f, 0x3d,
  0xb8, 0x1a, 0xaa, 0x3d, 0x74, 0xba, 0x29, 0x3b, 0xb9, 0x91, 0x28, 0x3d,
  0x04, 0xc3, 0x72, 0xbe, 0x83, 0xbf, 0x92, 0x3c, 0x80, 0x11, 0xbf, 0x3d,
  0xb6, 0x73, 0x04, 0xbd, 0xd9, 0x24, 0x6a, 0xbe, 0xf9, 0x6c, 0x9c, 0x3c,
  0x5c, 0xfa, 0x3f, 0xbe, 0xe0, 0xd5, 0x85, 0x3d, 0x98, 0x29, 0xfc, 0x3c,
  0x5d, 0xe5, 0xb3, 0x3d, 0xa4, 0x4b, 0x66, 0x3d, 0xb8, 0x93, 0x08, 0xbe,
  0x39, 0x02, 0x1f, 0xbe, 0x30, 0x3b, 0xb8, 0x3c, 0x33, 0x87, 0x26, 0xbd,
  0x28, 0x12, 0x95, 0xbb, 0x20, 0xbf, 0x68, 0xbe, 0xc0, 0x1c, 0xb0, 0x3c,
  0xef, 0xfe, 0x07, 0x3e, 0x02, 0x1a, 0x71, 0xbe, 0x41, 0x72, 0x0b, 0xbd,
  0x92, 0x7d, 0xb1, 0x3d, 0x33, 0xad, 0xb4, 0xbe, 0xa2, 0x02, 0x46, 0xbe,
  0xc5, 0x90, 0x98, 0xbe, 0x1f, 0xcd, 0x25, 0xbe, 0xe4, 0x58, 0x42, 0xbe,
  0xdf, 0xc9, 0x65, 0xbe, 0xe3, 0x2c, 0x9f, 0xbe, 0xd8, 0xa1, 0x98, 0xbd,
  0x2e, 0x7e, 0x6e, 0xbe, 0x95, 0xc7, 0x11, 0xbd, 0x45, 0x05, 0xf7, 0x3d,
  0x8c, 0x6e, 0xf9, 0xbd, 0xa9, 0x2e, 0x7b, 0x3d, 0x63, 0x86, 0x87, 0xbe,
  0x97, 0x85, 0xb6, 0x3d, 0x2e, 0x66, 0x8b, 0x3e, 0xf2, 0x09, 0x26, 0xbe,
  0x1b, 0xc2, 0x7e, 0x3e, 0x9b, 0x56, 0x2b, 0x3e, 0x3d, 0x25, 0x47, 0x3e,
  0xc3, 0xa9, 0x8b, 0xbd, 0x82, 0x3d, 0x9a, 0xbc, 0x8a, 0x02, 0xa6, 0x3d,
  0x00, 0xf5, 0x03, 0x3f, 0x88, 0xa8, 0x94, 0x3d, 0xc9, 0x3b, 0x71, 0x3d,
  0x13, 0xf0, 0x27, 0xbe, 0xda, 0x4a, 0xc6, 0x3e, 0x22, 0x45, 0x95, 0xbe,
  0xd8, 0x40, 0x64, 0xbd, 0x74, 0x16, 0x8f, 0x3d, 0x5f, 0x22, 0xa5, 0x3e,
  0xbd, 0xf6, 0xf7, 0xbc, 0x7a, 0x52, 0xd6, 0xbd, 0x8a, 0x53, 0x53, 0x3e,
  0x66, 0x93, 0x02, 0xbc, 0x95, 0xa0, 0x52, 0xbe, 0x5d, 0x8f, 0x1b, 0x3e,
  0xb4, 0x2c, 0x9f, 0x3e, 0x0f, 0x60, 0x4c, 0x3d, 0x23, 0x26, 0xfd, 0x3c,
  0x24, 0x5c, 0x4b, 0x3e, 0x20, 0x47, 0xb8, 0xbd, 0x41, 0x7f, 0x99, 0x3e,
  0x31, 0x12, 0x28, 0x3e, 0x04, 0x77, 0x80, 0xbd, 0x7b, 0x58, 0x64, 0x3d,
  0xe7, 0xb4, 0xf1, 0x3b, 0xec, 0x69, 0xde, 0xbc, 0x75, 0x8b, 0xa2, 0xbe,
  0xd2, 0x93, 0x58, 0xbe, 0x2b, 0xe4, 0x55, 0xbd, 0x99, 0xbd, 0x8f, 0xbe,
  0xa1, 0x7f, 0x01, 0xbe, 0x13, 0xe8, 0xc3, 0x3e, 0x02, 0x04, 0x52, 0xbd,
  0x55, 0xd8, 0x08, 0x3d, 0x00, 0xa0, 0x00, 0x3e, 0x3f, 0xd4, 0xb4, 0xbd,
  0x77, 0xef, 0x79, 0x3e, 0xae, 0xa2, 0x6f, 0x3d, 0xba, 0xc8, 0x5e, 0x3e,
  0x09, 0x31, 0x1c, 0x3d, 0x6d, 0xf9, 0xa9, 0xbe, 0x05, 0xed, 0xc3, 0xbc,
  0x7f, 0x6a, 0x2c, 0xbc, 0xbf, 0x77, 0x85, 0xbd, 0x7a, 0x28, 0x05, 0xbe,
  0x32, 0xd8, 0xf8, 0xbe, 0x7c, 0x39, 0xac, 0xbe, 0x3e, 0x72, 0x85, 0xba,
  0xd8, 0xc5, 0x1b, 0x3e, 0x93, 0x15, 0x8b, 0xbd, 0x5d, 0xd2, 0x74, 0x3d,
  0xc8, 0x3a, 0x80, 0xbd, 0x03, 0x31, 0x33, 0x3e, 0xae, 0x0a, 0x61, 0x3c,
  0xb7, 0xa1, 0x19, 0xbe, 0x11, 0x0b, 0x16, 0xbc, 0x5b, 0x64, 0x15, 0xbd,
  0x51, 0x0d, 0x0a, 0x3e, 0xfc, 0xde, 0x04, 0xbe, 0x7b, 0x5c, 0x8d, 0xbe,
  0xc5, 0x64, 0xe3, 0x3c, 0xc6, 0x1e, 0x6a, 0xbe, 0xd2, 0x12, 0xb6, 0xbe,
  0x96, 0x9b, 0xf8, 0x3c, 0x29, 0x60, 0xac, 0x3d, 0xa7, 0x06, 0xbb, 0xbd,
  0x8e, 0xac, 0xbb, 0xbb, 0x2e, 0xfd, 0xdb, 0xbd, 0x9c, 0xe5, 0xb4, 0xbc,
  0xc7, 0x43, 0xed, 0x3d, 0x32, 0x4f, 0xae, 0xbe, 0xf8, 0x28, 0x1b, 0xbb,
  0x06, 0xd6, 0x23, 0xbe, 0xe0, 0x2e, 0xae, 0xbd, 0xd2, 0xdd, 0x92, 0xbe,
  0x34, 0xe4, 0x7d, 0xbe, 0xed, 0xaf, 0x83, 0xbe, 0x7e, 0x7f, 0xa9, 0xbe,
  0x9c, 0x20, 0x98, 0xbe, 0xb3, 0x83, 0x6e, 0xbe, 0x71, 0x49, 0x39, 0xbd,
  0x23, 0x5e, 0x0f, 0xbe, 0xce, 0x9c, 0xb4, 0xbd, 0x71, 0x7a, 0xcb, 0xbc,
  0xba, 0x34, 0xdc, 0xbe, 0xad, 0x55, 0xac, 0xbe, 0xcd, 0x28, 0xbf, 0xbe,
  0xa3, 0xb6, 0x2e, 0xbd, 0xe8, 0xb3, 0xd1, 0x3d, 0xf1, 0xa5, 0xab, 0x3c,
  0x18, 0x01, 0x04, 0x3e, 0xe0, 0xc4, 0x47, 0xbd, 0xea, 0x5b, 0xa9, 0x3d,
  0x61, 0x4d, 0x57, 0x3d, 0xdd, 0x22, 0x93, 0xbd, 0xd0, 0xf7, 0xa0, 0x3a,
  0x6b, 0x1c, 0xf2, 0xba, 0xc4, 0xdb, 0x36, 0x3d, 0xb2, 0x46, 0x33, 0xbc,
  0xc3, 0x16, 0xff, 0x3c, 0x70, 0xf1, 0x84, 0x3d, 0xb2, 0xb3, 0x2f, 0xbc,
  0xad, 0x2e, 0xf4, 0xbd, 0x41, 0x40, 0x4a, 0xbe, 0x13, 0x9d, 0xe1, 0xbc,
  0xb9, 0x09, 0x29, 0x3e, 0x52, 0xa8, 0x75, 0xbd, 0x41, 0xa8, 0x1b, 0xbd,
  0x48, 0x9a, 0x2a, 0xbd, 0xc5, 0xf3, 0x11, 0xbe, 0xa7, 0x25, 0x06, 0xbe,
  0x55, 0x36, 0x5b, 0xbe, 0x5f, 0x5b, 0xa2, 0x3e, 0x2d, 0x82, 0xd7, 0xbd,
  0x17, 0x98, 0x00, 0xbd, 0xaf, 0x22, 0x38, 0x3d, 0x44, 0x82, 0xa0, 0x3e,
  0xd0, 0x1b, 0x9b, 0xbd, 0x4e, 0xf7, 0x9d, 0xbe, 0x4e, 0x6b, 0x52, 0xbe,
  0x10, 0xcb, 0x90, 0x3c, 0x75, 0x4d, 0xce, 0x3d, 0xcc, 0x09, 0xcd, 0x3c,
  0x1f, 0xc4, 0x27, 0x3d, 0xd7, 0x27, 0x5b, 0x3e, 0xe3, 0x7c, 0x3f, 0xbd,
  0xeb, 0x15, 0x39, 0x3a, 0x77, 0x2b, 0x1b, 0xbd, 0x0e, 0x59, 0x2f, 0xbe,
  0x80, 0x39, 0x2c, 0x3c, 0xe6, 0xbf, 0xa0, 0x3e, 0xf2, 0xcf, 0x81, 0xbd,
  0xfb, 0x42, 0x2a, 0xbe, 0x99, 0xfc, 0x21, 0x3e, 0x83, 0xd2, 0x4c, 0x3b,
  0x4e, 0xd4, 0x9d, 0xbe, 0x37, 0x1f, 0x2d, 0xbd, 0x8c, 0x8d, 0x92, 0x3e,
  0x54, 0x5f, 0x01, 0x3e, 0x7c, 0x86, 0xa2, 0x3e, 0x73, 0xfb, 0xc1, 0x3e,
  0xc6, 0xcb, 0xf1, 0xbd, 0xfb, 0x3a, 0x3c, 0x3e, 0xfb, 0x49, 0x5c, 0xbd,
  0x11, 0x8a, 0xdf, 0x3e, 0xfd, 0x14, 0x39, 0x3d, 0x25, 0x8a, 0x16, 0x3e,
  0xee, 0x95, 0xe3, 0x3c, 0x7d, 0xea, 0x39, 0xbe, 0x50, 0x6a, 0xa1, 0x3d,
  0x4c, 0x04, 0x36, 0xbe, 0x59, 0x7d, 0x44, 0xbe, 0x4c, 0x5b, 0x78, 0x3e,
  0x99, 0xea, 0x0b, 0x3d, 0xf1, 0xdf, 0xb0, 0x3e, 0x66, 0x82, 0x14, 0x3e,
  0x7c, 0xe9, 0xa7, 0x3e, 0x21, 0xf0, 0xf2, 0x3d, 0xa2, 0xcc, 0x42, 0x3e,
  0xf6, 0xa8, 0x75, 0x3e, 0xa2, 0x3a, 0x07, 0x3e, 0xb6, 0x66, 0x44, 0x3c,
  0x17, 0xc5, 0x77, 0x3e, 0xb0, 0x35, 0x82, 0xbc, 0xf8, 0xb5, 0x2c, 0xbe,
  0x5f, 0x5e, 0x4e, 0xbd, 0x74, 0x7a, 0x54, 0x3d, 0x1e, 0x63, 0x9b, 0xbe,
  0x61, 0x37, 0x15, 0xbd, 0x41, 0x2c, 0xaa, 0x3d, 0x8b, 0x2a, 0x3e, 0x3d,
  0x89, 0x2e, 0x6a, 0x3e, 0x72, 0x91, 0x3a, 0x3e, 0x98, 0xe0, 0x1a, 0xbe,
  0xbe, 0xbc, 0xf7, 0xbd, 0x57, 0x10, 0x26, 0xbe, 0xce, 0x32, 0xc0, 0x3d,
  0xd7, 0xd9, 0x79, 0xbe, 0x6e, 0xb2, 0xa2, 0x3e, 0x96, 0x7c, 0x49, 0xbd,
  0xf5, 0xf5, 0x39, 0xbe, 0x04, 0xe9, 0x66, 0xbe, 0x88, 0x6c, 0x30, 0xbe,
  0x94, 0x96, 0x87, 0xbe, 0xd3, 0xc7, 0x5b, 0xbe, 0x67, 0x24, 0x8f, 0x3d,
  0x32, 0x63, 0x01, 0xbd, 0x70, 0xd4, 0xb0, 0xbc, 0x9c, 0xf3, 0x5a, 0x3e,
  0x61, 0x60, 0xd4, 0xbd, 0x04, 0x34, 0xf0, 0xbb, 0x45, 0xa2, 0x11, 0x3e,
  0x0c, 0x8e, 0x09, 0xbd, 0x0f, 0xe7, 0x8d, 0xbd, 0xdf, 0x21, 0x40, 0x3e,
  0x86, 0x8e, 0x1b, 0x3c, 0x45, 0x77, 0xcb, 0xbd, 0x47, 0x2b, 0xd8, 0x3d,
  0x41, 0xca, 0x03, 0xbd, 0x91, 0x3f, 0xba, 0xbd, 0xe9, 0x3c, 0x48, 0x3e,
  0x12, 0xbf, 0x20, 0xbe, 0x2f, 0x54, 0x17, 0x3e, 0x65, 0x95, 0x60, 0xbe,
  0x88, 0x59, 0x0a, 0x3b, 0x3b, 0xac, 0x7a, 0xbe, 0x26, 0x27, 0xf9, 0xbc,
  0x57, 0xd1, 0xff, 0xbd, 0x0f, 0xc7, 0x6b, 0xbd, 0xc4, 0x0d, 0x21, 0xbe,
  0x33, 0xb4, 0x7d, 0x3d, 0xa7, 0xf8, 0xb2, 0x3d, 0x7e, 0x2d, 0x8f, 0x3d,
  0x4d, 0x46, 0x10, 0xbf, 0x50, 0x33, 0xa5, 0x3c, 0x1a, 0x35, 0x19, 0xbe,
  0xec, 0x0f, 0x81, 0xbe, 0x03, 0x17, 0x31, 0xbe, 0xc2, 0x69, 0xb5, 0xbe,
  0x60, 0x11, 0x00, 0xbe, 0xc2, 0xb7, 0xc7, 0x3d, 0x9f, 0x82, 0xc6, 0xbd,
  0x82, 0x87, 0x15, 0xbd, 0x9c, 0x37, 0x3d, 0xbe, 0xbc, 0x5d, 0x83, 0xbe,
  0x6f, 0xf1, 0x36, 0xbe, 0x92, 0x01, 0x2d, 0xbe, 0xfa, 0x19, 0x2d, 0x3e,
  0xc6, 0xe0, 0x19, 0x3d, 0x7d, 0x61, 0x4f, 0xbc, 0x9e, 0xa6, 0x6b, 0xbd,
  0x8f, 0x07, 0xbf, 0xba, 0x56, 0xd0, 0x7a, 0x3d, 0xe9, 0x12, 0x41, 0xbe,
  0xbe, 0xc9, 0x33, 0xbe, 0xf8, 0xfb, 0x89, 0xbd, 0x34, 0x97, 0xca, 0xbd,
  0x74, 0x94, 0x73, 0x3d, 0x0e, 0xf5, 0x32, 0x3d, 0x68, 0xb7, 0x6f, 0xbe,
  0xcb, 0xc8, 0x60, 0xbe, 0x1a, 0x9c, 0xc0, 0xbe, 0x93, 0x56, 0x1d, 0xbe,
  0x78, 0xd1, 0x85, 0xbe, 0xaa, 0x2b, 0x1d, 0x3c, 0x19, 0x7f, 0x95, 0x3d,
  0xd3, 0x51, 0x94, 0xbd, 0x2a, 0xed, 0x2b, 0xbc, 0x76, 0xc2, 0xf1, 0xbd,
  0x06, 0x23, 0x04, 0xbe, 0x9a, 0xc0, 0xab, 0xbc, 0x3b, 0x18, 0x23, 0xbd,
  0x16, 0xda, 0x31, 0x3d, 0x32, 0x5e, 0x8e, 0x3d, 0x3e, 0xbe, 0xaf, 0xbc,
  0x99, 0xa9, 0xd4, 0x3d, 0xff, 0x70, 0xf1, 0xbe, 0x63, 0x12, 0xf6, 0xbd,
  0xb0, 0x3f, 0xa3, 0x3c, 0x5e, 0x40, 0x8b, 0xbe, 0xc2, 0x36, 0x72, 0xbe,
  0xe6, 0xc4, 0x24, 0xbe, 0x45, 0xf6, 0xe9, 0xbd, 0xc4, 0x3b, 0xb8, 0xbc,
  0x07, 0x6c, 0x79, 0xbe, 0xa9, 0x4a, 0xfe, 0xbd, 0x28, 0x31, 0x49, 0xbe,
  0xd4, 0x30, 0x4f, 0xbb, 0xe7, 0xf6, 0xea, 0x3d, 0x31, 0x26, 0x70, 0xbc,
  0x71, 0xa5, 0x7d, 0xbe, 0x1f, 0xbf, 0xa4, 0xbb, 0x87, 0xd0, 0x83, 0xbe,
  0xf1, 0xa5, 0xc2, 0xbe, 0x79, 0x50, 0x5b, 0x3d, 0x7f, 0x48, 0x82, 0xbb,
  0x5d, 0x4e, 0x37, 0x3e, 0xbc, 0x8b, 0xd9, 0x3d, 0x71, 0xd4, 0x18, 0x3e,
  0xd7, 0x7b, 0x50, 0xbe, 0x79, 0x23, 0x5c, 0xbe, 0xc7, 0x36, 0x9b, 0xbd,
  0x59, 0x56, 0xa6, 0xbd, 0x27, 0x80, 0x68, 0xbe, 0xee, 0x9b, 0x99, 0x3d,
  0xb9, 0xc9, 0x81, 0xbe, 0xf5, 0x3b, 0x7d, 0xbe, 0xa8, 0x3f, 0x94, 0xbd,
  0x91, 0xa4, 0x5d, 0xbd, 0xfa, 0x5a, 0x75, 0xbe, 0xea, 0x58, 0x1c, 0xbc,
  0xc2, 0xdf, 0x84, 0x3d, 0x0a, 0x12, 0x2b, 0xbe, 0x8b, 0x3c, 0xfd, 0xbd,
  0xd1, 0xd7, 0xdb, 0x3d, 0xe1, 0x6d, 0xe3, 0xbd, 0xb8, 0xd7, 0x00, 0xbe,
  0x21, 0x88, 0xd0, 0xbe, 0x75, 0x2c, 0x02, 0xbf, 0x4d, 0xbc, 0x3c, 0x3d,
  0x56, 0xf9, 0xa9, 0xbd, 0x8e, 0x6b, 0x97, 0xbe, 0xfe, 0x7c, 0x2e, 0xbb,
  0x46, 0x87, 0xd8, 0x3a, 0x5d, 0x3a, 0xb2, 0xbe, 0x44, 0xfe, 0xba, 0xbd,
  0x8a, 0xf4, 0x16, 0xbe, 0xfd, 0x69, 0xfa, 0xbd, 0xe3, 0x9c, 0x70, 0xbe,
  0xd9, 0x4e, 0xfa, 0xbd, 0x50, 0xb0, 0x61, 0xbe, 0x76, 0x99, 0x30, 0x3d,
  0x83, 0xae, 0xb3, 0xbd, 0xe7, 0x0e, 0xa1, 0x3d, 0x7f, 0x20, 0xae, 0x3e,
  0x44, 0x05, 0x2f, 0x3e, 0x54, 0x3d, 0x90, 0xbe, 0x62, 0x98, 0x5e, 0x3e,
  0xc2, 0x17, 0x66, 0xbe, 0xc7, 0x0d, 0xdd, 0x3c, 0x0b, 0x3d, 0x34, 0xbc,
  0xce, 0xd9, 0x2f, 0x3e, 0x7f, 0x63, 0xe2, 0xbc, 0x23, 0x13, 0x91, 0x36,
  0x94, 0x98, 0x5d, 0xbd, 0x4d, 0x6d, 0x66, 0xbd, 0x6e, 0x96, 0x0c, 0xbe,
  0xac, 0xe2, 0x1d, 0xbe, 0x29, 0x44, 0x9f, 0xbe, 0x51, 0x9c, 0x41, 0xbe,
  0x84, 0xa5, 0x36, 0xbe, 0xdf, 0x87, 0x11, 0x3c, 0x4b, 0x28, 0x1e, 0xbe,
  0xe5, 0xf0, 0x21, 0x3d, 0x0b, 0x72, 0xa7, 0xbd, 0x74, 0xed, 0x4b, 0x3c,
  0xc1, 0x46, 0xdb, 0xbd, 0xf0, 0xb7, 0xdb, 0xbd, 0xec, 0x6b, 0x9b, 0xbe,
  0xf9, 0xe5, 0x90, 0xbe, 0xe5, 0x5b, 0x4b, 0xbe, 0xec, 0xda, 0xcf, 0xbd,
  0x0e, 0x0b, 0x49, 0xbe, 0xff, 0xc3, 0x89, 0xbe, 0xbe, 0xfb, 0x84, 0x3d,
  0x91, 0x6c, 0x84, 0xbd, 0xa4, 0x81, 0x09, 0x3e, 0xc7, 0xca, 0xa4, 0x3c,
  0x1d, 0xa9, 0x7a, 0x3d, 0x8f, 0x00, 0x1f, 0x3d, 0x0c, 0x9b, 0xb9, 0xbc,
  0xca, 0x2d, 0x88, 0xbd, 0x0f, 0xa1, 0x1a, 0xbe, 0x79, 0xb3, 0x7d, 0xbd,
  0xea, 0xa2, 0x2e, 0xbe, 0x1b, 0xa4, 0x4b, 0xbe, 0x4e, 0x32, 0x48, 0xbe,
  0xe7, 0xd6, 0x0c, 0x3e, 0xc1, 0x1c, 0x9c, 0xbd, 0x19, 0xc4, 0x0b, 0xbe,
  0x27, 0x56, 0x4d, 0xbe, 0xdd, 0x3b, 0x77, 0xbd, 0xb3, 0xa7, 0x21, 0x3e,
  0x94, 0xf6, 0xf1, 0x3c, 0x9e, 0x24, 0x0a, 0xbe, 0x14, 0x91, 0x40, 0xbe,
  0x38, 0xce, 0xa9, 0x3d, 0xf6, 0x01, 0xe4, 0xbd, 0xeb, 0x76, 0x90, 0xbd,
  0xac, 0x81, 0x5a, 0xbe, 0x64, 0xcb, 0xb5, 0x3d, 0xd6, 0x8c, 0x8d, 0xbc,
  0xfc, 0x27, 0x3e, 0x3e, 0x6f, 0xe7, 0xf5, 0x3d, 0x46, 0x50, 0x22, 0xbe,
  0xdf, 0x8d, 0xf9, 0xbb, 0x87, 0x32, 0x37, 0xbe, 0x61, 0x1e, 0x65, 0xbc,
  0x73, 0x95, 0xd1, 0xbd, 0xf5, 0x6e, 0x60, 0x3d, 0xe2, 0x74, 0xbb, 0xbd,
  0xe8, 0x82, 0xd5, 0x3c, 0x91, 0x3d, 0x14, 0x3e, 0x6c, 0xf4, 0xaf, 0xbd,
  0xc0, 0xa6, 0x93, 0xbe, 0xc1, 0x3b, 0xf6, 0xbd, 0x27, 0x3b, 0x82, 0xbe,
  0x1e, 0xa7, 0x6f, 0xbd, 0x67, 0xfc, 0xab, 0x3c, 0xbf, 0x42, 0x00, 0xbd,
  0xf9, 0xa0, 0xe6, 0xbd, 0x78, 0x34, 0x0c, 0xbd, 0x14, 0xe8, 0xbc, 0xbd,
  0x7d, 0xa7, 0xa7, 0xbe, 0xfe, 0x37, 0x6a, 0xbe, 0xeb, 0x1f, 0xfe, 0xbd,
  0x2a, 0xbd, 0x02, 0xbb, 0x89, 0x09, 0x0f, 0xbd, 0xad, 0x84, 0x00, 0x3d,
  0xf1, 0xf0, 0x82, 0xbe, 0xd7, 0xdd, 0x87, 0xbd, 0x63, 0x25, 0xa2, 0xbd,
  0x35, 0x69, 0x65, 0xbe, 0x19, 0x20, 0x6f, 0x3c, 0x64, 0x49, 0x08, 0xbe,
  0xd4, 0xc0, 0x91, 0x3d, 0xaa, 0xf4, 0x61, 0xbe, 0x3d, 0x76, 0x19, 0xbe,
  0x57, 0xb9, 0x52, 0x3e, 0x06, 0x4b, 0x1d, 0x3c, 0xf7, 0x87, 0x3c, 0x3d,
  0x80, 0x13, 0x0a, 0xbe, 0x13, 0x2e, 0x89, 0xbe, 0x65, 0x2b, 0x01, 0x3e,
  0x75, 0x07, 0x4c, 0xbe, 0xff, 0x4a, 0x04, 0xbe, 0x0c, 0x56, 0x5b, 0xbe,
  0x8f, 0xd3, 0xc0, 0xbd, 0x46, 0x08, 0x6e, 0x3d, 0xc5, 0x86, 0xcb, 0xbc,
  0x1c, 0x83, 0xae, 0x3d, 0xc9, 0x61, 0xd7, 0x3c, 0x5a, 0x13, 0xfa, 0xbd,
  0x10, 0xfa, 0x1f, 0xbe, 0x54, 0x06, 0xd1, 0xbd, 0x39, 0x64, 0xa2, 0xbe,
  0xae, 0xac, 0xa6, 0xbd, 0x6f, 0xfc, 0x7e, 0x3e, 0x2e, 0x6b, 0x06, 0xbd,
  0xb9, 0x63, 0x84, 0xbb, 0xf9, 0x26, 0x12, 0xbe, 0x40, 0x78, 0xf1, 0xbd,
  0xd9, 0xba, 0x30, 0x3e, 0x37, 0x4c, 0xa4, 0x3d, 0xe3, 0x40, 0x95, 0xbd,
  0x72, 0xca, 0x9e, 0x3c, 0xf9, 0x3d, 0x48, 0x3d, 0xba, 0xa3, 0x10, 0xbd,
  0x02, 0xfb, 0x1a, 0xbe, 0xa6, 0xca, 0x25, 0xbe, 0xe8, 0x4b, 0x75, 0xbe,
  0x31, 0xc4, 0x64, 0x3d, 0x6c, 0x1e, 0xbb, 0xbe, 0x08, 0x99, 0x57, 0xbe,
  0x88, 0x39, 0xe7, 0xbd, 0x4a, 0xe4, 0xc4, 0x3d, 0xbf, 0x82, 0x53, 0x3d,
  0x0a, 0x2b, 0x74, 0x3b, 0x05, 0xae, 0x56, 0xbe, 0x2e, 0x80, 0xfd, 0xbd,
  0xa7, 0x9e, 0xcc, 0xbe, 0x3e, 0xfe, 0x39, 0x3e, 0x43, 0xed, 0xac, 0xbd,
  0xfd, 0x3e, 0x70, 0x3e, 0xe9, 0x7c, 0xec, 0xbd, 0x26, 0xdb, 0x1e, 0xbe,
  0x08, 0xac, 0xc8, 0xbe, 0x2e, 0x9e, 0x12, 0xbe, 0xfa, 0xf6, 0x8e, 0xbd,
  0x26, 0x47, 0x02, 0x3d, 0xe2, 0x42, 0xe8, 0xbe, 0x3b, 0xd3, 0x19, 0x3e,
  0x24, 0xe8, 0x1b, 0xbc, 0x3e, 0x03, 0xb2, 0xbd, 0x92, 0x3d, 0x24, 0xbe,
  0x79, 0xde, 0xbf, 0xbd, 0xbc, 0x93, 0x1e, 0xbf, 0x67, 0x92, 0x77, 0x3e,
  0xaf, 0x19, 0x77, 0x3d, 0xe4, 0x24, 0xa6, 0x3e, 0x0f, 0xf7, 0x37, 0xbd,
  0xc2, 0xb4, 0x60, 0xbe, 0xa6, 0xd5, 0x7b, 0x3d, 0x49, 0xd4, 0xa1, 0x3d,
  0x74, 0xc5, 0xa2, 0xbd, 0x98, 0x77, 0xdd, 0xbd, 0xbe, 0xbe, 0x4d, 0xbe,
  0xcd, 0xd1, 0x03, 0x3f, 0xe1, 0x5e, 0xca, 0x3e, 0x5b, 0x70, 0xcb, 0xbd,
  0x68, 0x87, 0x8b, 0xbe, 0x33, 0x96, 0xb0, 0xbd, 0xc8, 0xf3, 0xd4, 0xbd,
  0x9c, 0x6a, 0x61, 0x3e, 0xb1, 0xb1, 0xc3, 0xbd, 0xf3, 0xd7, 0xae, 0x3e,
  0x9e, 0xd1, 0xc7, 0xbb, 0x96, 0x1f, 0x26, 0xbd, 0x1c, 0xff, 0x9c, 0xbc,
  0xd5, 0xfd, 0xcd, 0x3d, 0x78, 0xa2, 0xf1, 0xbc, 0x0d, 0x0e, 0x0b, 0x3e,
  0xb4, 0x01, 0xaa, 0xbd, 0x17, 0xf5, 0xa1, 0x3e, 0x95, 0x9f, 0xc7, 0x3e,
  0xac, 0x66, 0xc0, 0xbd, 0x23, 0x34, 0x3e, 0x3d, 0xb6, 0x31, 0x00, 0xbd,
  0x63, 0xa7, 0x21, 0xbe, 0x10, 0x59, 0x73, 0x3e, 0xd5, 0x11, 0x00, 0x3e,
  0x9e, 0x94, 0x7f, 0x3e, 0x9f, 0x0b, 0x68, 0xbc, 0x17, 0x52, 0x5c, 0xbc,
  0xf0, 0xbe, 0x0c, 0x3d, 0x73, 0xa0, 0xca, 0xbc, 0xf8, 0xf7, 0x85, 0xbe,
  0x8d, 0x30, 0x89, 0xbe, 0xf9, 0x11, 0x0e, 0xbe, 0x2f, 0xf1, 0x63, 0x3e,
  0xc8, 0x93, 0xaa, 0x3e, 0x3a, 0xff, 0xd6, 0xbd, 0x8c, 0x77, 0xe1, 0x3c,
  0xe4, 0xc9, 0x11, 0xbe, 0x7f, 0xe1, 0xae, 0xbe, 0xf4, 0x15, 0xb0, 0x3d,
  0xe7, 0x92, 0x87, 0x3e, 0x36, 0x22, 0xaa, 0x3e, 0x57, 0x18, 0x69, 0x3d,
  0x1a, 0x6f, 0x10, 0x3c, 0x3a, 0x53, 0x1d, 0xbe, 0x3b, 0xc8, 0x80, 0xbe,
  0x39, 0x35, 0xad, 0xbe, 0x1e, 0x1b, 0x5c, 0xbe, 0x4e, 0xd2, 0x6e, 0xbe,
  0x38, 0xf7, 0x82, 0x3e, 0x05, 0x72, 0x9c, 0xbc, 0x36, 0xdc, 0xb1, 0xbc,
  0xa1, 0xfb, 0x0a, 0xbc, 0x30, 0x4d, 0x91, 0x3c, 0x8e, 0x57, 0xa9, 0xbe,
  0x36, 0xbe, 0x55, 0x3e, 0xad, 0x37, 0x0b, 0x3f, 0x45, 0xd4, 0xcb, 0x3e,
  0x7a, 0x37, 0x65, 0x3e, 0x35, 0xdd, 0x35, 0xbe, 0xc1, 0x94, 0x7a, 0xbe,
  0x75, 0xe9, 0xad, 0xbd, 0xb4, 0xf1, 0x76, 0xbe, 0xb4, 0x41, 0xaf, 0xbe,
  0x15, 0xb9, 0x3a, 0x3b, 0x2e, 0xd9, 0xf4, 0x3d, 0xa1, 0x3e, 0x84, 0x3d,
  0xd2, 0xee, 0xb0, 0xbb, 0xa2, 0xdf, 0xe6, 0x3b, 0x90, 0x72, 0x5a, 0x3e,
  0xa6, 0xd7, 0x38, 0xbe, 0xe2, 0x78, 0x41, 0xbe, 0x03, 0xdc, 0x1a, 0xbd,
  0xb6, 0x8d, 0x1f, 0x3e, 0xad, 0x8d, 0xea, 0xbd, 0x2a, 0xf4, 0x54, 0xbe,
  0xb1, 0x72, 0xf1, 0xbe, 0x74, 0x5a, 0x3d, 0xbe, 0x7d, 0xf6, 0x45, 0xbe,
  0x39, 0xab, 0x83, 0xbe, 0x38, 0xf9, 0x17, 0x3c, 0xbb, 0x25, 0x9e, 0x3c,
  0x65, 0x79, 0x3a, 0xbf, 0x9b, 0x53, 0x34, 0xbe, 0x4a, 0xba, 0x01, 0xbf,
  0x86, 0xea, 0x8f, 0xbe, 0x33, 0xaf, 0x71, 0xbc, 0x8b, 0x69, 0x4d, 0xbd,
  0x9b, 0xd6, 0x82, 0xbe, 0x52, 0x45, 0xce, 0xbd, 0xf0, 0x92, 0x13, 0xbe,
  0x42, 0x76, 0xd6, 0xbd, 0x4c, 0x76, 0xc7, 0xbe, 0xab, 0x11, 0x90, 0xbe,
  0x61, 0x72, 0xfc, 0xbd, 0x50, 0xbe, 0x19, 0xbe, 0xfd, 0x71, 0xb7, 0x3d,
  0xa4, 0x46, 0xd0, 0xbe, 0x5d, 0x40, 0x4a, 0xbe, 0xc1, 0x09, 0x91, 0xbe,
  0x66, 0xa9, 0xb3, 0xbe, 0xb5, 0xc6, 0xd1, 0xbe, 0x27, 0xb9, 0xa0, 0xbd,
  0x2e, 0xbd, 0x87, 0xbd, 0x50, 0x43, 0x13, 0xbe, 0xd8, 0x22, 0x3f, 0xbc,
  0x8e, 0x63, 0x0b, 0xbf, 0x55, 0x5c, 0x0e, 0xbe, 0x97, 0x23, 0x2d, 0xbd,
  0x11, 0x6d, 0x2a, 0xbd, 0x81, 0x56, 0x09, 0xbd, 0x77, 0x04, 0x97, 0xbd,
  0xd0, 0xe3, 0x9e, 0xbc, 0xe9, 0xb2, 0x02, 0xbe, 0x77, 0xec, 0x78, 0xbe,
  0xa6, 0x5a, 0xdf, 0xbd, 0x9f, 0x83, 0x6c, 0xbe, 0x9a, 0x66, 0xea, 0xbe,
  0xca, 0x2f, 0x95, 0x3c, 0x98, 0x7a, 0x60, 0xbe, 0xb1, 0xd1, 0x5a, 0xbe,
  0xb7, 0x7a, 0xa7, 0x3d, 0xee, 0x95, 0x10, 0xbf, 0x44, 0x6a, 0x22, 0xbd,
  0x7d, 0xb6, 0x00, 0xbe, 0x89, 0x0e, 0xbc, 0xbe, 0x44, 0x2a, 0x35, 0xbe,
  0xf4, 0x15, 0x93, 0xbe, 0x2a, 0xa5, 0x3e, 0xbe, 0x6b, 0x22, 0x16, 0xbe,
  0x89, 0x93, 0x9f, 0xbd, 0x36, 0xbb, 0x90, 0xbe, 0x89, 0xcd, 0x22, 0xbe,
  0x48, 0x22, 0x98, 0xbe, 0xc7, 0xd5, 0x53, 0xbd, 0xc1, 0x9b, 0x32, 0xbe,
  0xab, 0xcd, 0x22, 0xbe, 0x9f, 0x26, 0x78, 0xbe, 0x34, 0x15, 0x00, 0xbf,
  0x42, 0x1d, 0xc4, 0xbd, 0xd6, 0x18, 0x9f, 0x3e, 0x0a, 0xed, 0x31, 0xbe,
  0xb3, 0xee, 0x17, 0x3d, 0x3b, 0x44, 0x0e, 0x3f, 0x02, 0xad, 0x8c, 0xbd,
  0xaf, 0x80, 0x2e, 0x3d, 0x94, 0xad, 0x9c, 0xbc, 0xb4, 0xa8, 0x5d, 0x3e,
  0x8d, 0x80, 0x42, 0xbe, 0x9f, 0x87, 0x20, 0xbd, 0x08, 0xd0, 0xe0, 0xbc,
  0x2b, 0x6f, 0xe7, 0xbd, 0xce, 0x92, 0xea, 0xbe, 0x59, 0x0c, 0x1d, 0x3e,
  0x8c, 0xe9, 0xcf, 0xbe, 0xff, 0x0f, 0x06, 0xbd, 0x4f, 0x6e, 0xc8, 0x3e,
  0x00, 0x34, 0x31, 0xbe, 0xe3, 0x13, 0x60, 0x3e, 0xe8, 0xe4, 0xc8, 0x3e,
  0xe2, 0xe6, 0xe3, 0xbd, 0x1c, 0xea, 0xd1, 0x3c, 0xa8, 0x56, 0x11, 0x3e,
  0xc7, 0x15, 0x62, 0x3e, 0x6a, 0xaf, 0xa9, 0x3d, 0x87, 0xee, 0x15, 0xbd,
  0xa2, 0x37, 0x35, 0x3d, 0xd3, 0x5f, 0x0d, 0x3d, 0x94, 0x46, 0xce, 0xbe,
  0x54, 0xe5, 0xa9, 0xbe, 0x9a, 0xc1, 0xdd, 0xbd, 0x78, 0x16, 0xae, 0x3d,
  0x66, 0xad, 0x2e, 0x3d, 0x8c, 0xe0, 0x09, 0x3d, 0xf3, 0x69, 0xae, 0x3d,
  0xc8, 0x90, 0x73, 0x3e, 0x38, 0xc3, 0xe1, 0xbd, 0x51, 0xd5, 0xee, 0xbb,
  0x5e, 0x01, 0x03, 0x3e, 0xbb, 0x1c, 0xa5, 0x3e, 0xe2, 0xbe, 0xf1, 0x3d,
  0xfd, 0xf6, 0xad, 0x3e, 0x5d, 0xba, 0x5b, 0x3c, 0x53, 0x3d, 0x0d, 0xbe,
  0x50, 0x10, 0x4c, 0xbe, 0x56, 0xe5, 0x95, 0xbd, 0x2b, 0x49, 0x55, 0xbd,
  0x66, 0xfd, 0xff, 0xff, 0x10, 0x00, 0x00, 0x00, 0x07, 0x00, 0x00, 0x00,
  0x14, 0x00, 0x00, 0x00, 0x2c, 0x00, 0x00, 0x00, 0x02, 0x00, 0x00, 0x00,
  0x10, 0x00, 0x00, 0x00, 0x70, 0x00, 0x00, 0x00, 0x17, 0x00, 0x00, 0x00,
  0x73, 0x65, 0x71, 0x75, 0x65, 0x6e, 0x74, 0x69, 0x61, 0x6c, 0x2f, 0x64,
  0x65, 0x6e, 0x73, 0x65, 0x2f, 0x4d, 0x61, 0x74, 0x4d, 0x75, 0x6c, 0x00,
  0xd0, 0xfc, 0xff, 0xff, 0xda, 0xfd, 0xff, 0xff, 0x04, 0x00, 0x00, 0x00,
  0x08, 0x00, 0x00, 0x00, 0xff, 0xff, 0xff, 0xff, 0x70, 0x00, 0x00, 0x00,
  0x00, 0x00, 0x0e, 0x00, 0x18, 0x00, 0x08, 0x00, 0x07, 0x00, 0x0c, 0x00,
  0x10, 0x00, 0x14, 0x00, 0x0e, 0x00, 0x00, 0x00, 0x00, 0x00, 0x00, 0x02,
  0x10, 0x00, 0x00, 0x00, 0x06, 0x00, 0x00, 0x00, 0x10, 0x00, 0x00, 0x00,
  0x2c, 0x00, 0x00, 0x00, 0x01, 0x00, 0x00, 0x00, 0x02, 0x00, 0x00, 0x00,
  0x18, 0x00, 0x00, 0x00, 0x73, 0x65, 0x71, 0x75, 0x65, 0x6e, 0x74, 0x69,
  0x61, 0x6c, 0x2f, 0x66, 0x6c, 0x61, 0x74, 0x74, 0x65, 0x6e, 0x2f, 0x43,
  0x6f, 0x6e, 0x73, 0x74, 0x00, 0x00, 0x00, 0x00, 0x38, 0xfd, 0xff, 0xff,
  0x42, 0xfe, 0xff, 0xff, 0x04, 0x00, 0x00, 0x00, 0x0c, 0x00, 0x00, 0x00,
  0xd3, 0xbd, 0xb8, 0x3f, 0x6a, 0xff, 0x74, 0xc0, 0x63, 0x4c, 0x00, 0x3f,
  0x26, 0xfe, 0xff, 0xff, 0x10, 0x00, 0x00, 0x00, 0x05, 0x00, 0x00, 0x00,
  0x10, 0x00, 0x00, 0x00, 0x44, 0x00, 0x00, 0x00, 0x01, 0x00, 0x00, 0x00,
  0x03, 0x00, 0x00, 0x00, 0x32, 0x00, 0x00, 0x00, 0x73, 0x65, 0x71, 0x75,
  0x65, 0x6e, 0x74, 0x69, 0x61, 0x6c, 0x2f, 0x64, 0x65, 0x6e, 0x73, 0x65,
  0x5f, 0x31, 0x2f, 0x42, 0x69, 0x61, 0x73, 0x41, 0x64, 0x64, 0x2f, 0x52,
  0x65, 0x61, 0x64, 0x56, 0x61, 0x72, 0x69, 0x61, 0x62, 0x6c, 0x65, 0x4f,
  0x70, 0x2f, 0x72, 0x65, 0x73, 0x6f, 0x75, 0x72, 0x63, 0x65, 0x00, 0x00,
  0xa8, 0xfd, 0xff, 0xff, 0xb2, 0xfe, 0xff, 0xff, 0x04, 0x00, 0x00, 0x00,
  0x40, 0x00, 0x00, 0x00, 0x5c, 0x50, 0x01, 0x3f, 0xc4, 0x22, 0x02, 0xc0,
  0x51, 0xff, 0x5f, 0xbf, 0x78, 0xc8, 0xec, 0xbe, 0x0a, 0x12, 0xff, 0x3d,
  0x76, 0x75, 0x74, 0x3f, 0xc1, 0x0e, 0x7a, 0xbf, 0x31, 0x1f, 0xa4, 0xbf,
  0x0a, 0x6c, 0xb7, 0xbf, 0x7d, 0x10, 0x80, 0xbe, 0xce, 0x2f, 0x20, 0xbe,
  0x4c, 0x28, 0x0d, 0xbf, 0xa9, 0x38, 0x87, 0xbc, 0x27, 0xb3, 0xad, 0xbe,
  0xf6, 0xf4, 0x9f, 0xbf, 0xda, 0x28, 0x7a, 0xbf, 0xca, 0xfe, 0xff, 0xff,
  0x10, 0x00, 0x00, 0x00, 0x04, 0x00, 0x00, 0x00, 0x10, 0x00, 0x00, 0x00,
  0x44, 0x00, 0x00, 0x00, 0x01, 0x00, 0x00, 0x00, 0x10, 0x00, 0x00, 0x00,
  0x30, 0x00, 0x00, 0x00, 0x73, 0x65, 0x71, 0x75, 0x65, 0x6e, 0x74, 0x69,
  0x61, 0x6c, 0x2f, 0x64, 0x65, 0x6e, 0x73, 0x65, 0x2f, 0x42, 0x69, 0x61,
  0x73, 0x41, 0x64, 0x64, 0x2f, 0x52, 0x65, 0x61, 0x64, 0x56, 0x61, 0x72,
  0x69, 0x61, 0x62, 0x6c, 0x65, 0x4f, 0x70, 0x2f, 0x72, 0x65, 0x73, 0x6f,
  0x75, 0x72, 0x63, 0x65, 0x00, 0x00, 0x00, 0x00, 0x4c, 0xfe, 0xff, 0xff,
  0x56, 0xff, 0xff, 0xff, 0x04, 0x00, 0x00, 0x00, 0x40, 0x00, 0x00, 0x00,
  0x25, 0xdb, 0xe1, 0x3e, 0xc9, 0x25, 0x41, 0xbf, 0xf5, 0x08, 0x8e, 0x3f,
  0xd6, 0xd1, 0x82, 0xbf, 0x99, 0x6d, 0xad, 0xbf, 0xf1, 0xc3, 0xc4, 0xb9,
  0x88, 0x4f, 0xae, 0xbf, 0x46, 0x7b, 0x2b, 0xc0, 0x87, 0x65, 0xb8, 0xbf,
  0x6a, 0x8a, 0x0d, 0xbb, 0xb4, 0xda, 0x62, 0xbe, 0x07, 0x54, 0x2c, 0xb9,
  0x34, 0x56, 0x8a, 0xbf, 0x20, 0xb8, 0x20, 0xbc, 0x1d, 0x01, 0x3d, 0xbf,
  0xda, 0x19, 0xc2, 0xbf, 0x6e, 0xff, 0xff, 0xff, 0x10, 0x00, 0x00, 0x00,
  0x03, 0x00, 0x00, 0x00, 0x10, 0x00, 0x00, 0x00, 0x48, 0x00, 0x00, 0x00,
  0x01, 0x00, 0x00, 0x00, 0x10, 0x00, 0x00, 0x00, 0x33, 0x00, 0x00, 0x00,
  0x73, 0x65, 0x71, 0x75, 0x65, 0x6e, 0x74, 0x69, 0x61, 0x6c, 0x2f, 0x63,
  0x6f, 0x6e, 0x76, 0x32, 0x64, 0x5f, 0x31, 0x2f, 0x42, 0x69, 0x61, 0x73,
  0x41, 0x64, 0x64, 0x2f, 0x52, 0x65, 0x61, 0x64, 0x56, 0x61, 0x72, 0x69,
  0x61, 0x62, 0x6c, 0x65, 0x4f, 0x70, 0x2f, 0x72, 0x65, 0x73, 0x6f, 0x75,
  0x72, 0x63, 0x65, 0x00, 0x04, 0x00, 0x06, 0x00, 0x04, 0x00, 0x00, 0x00,
  0x00, 0x00, 0x06, 0x00, 0x08, 0x00, 0x04, 0x00, 0x06, 0x00, 0x00, 0x00,
  0x04, 0x00, 0x00, 0x00, 0x20, 0x00, 0x00, 0x00, 0x69, 0x9c, 0x69, 0xbc,
  0x7d, 0xd3, 0xc1, 0xbf, 0xf7, 0xb4, 0x33, 0xbf, 0xc0, 0xd7, 0xd5, 0xbf,
  0xfe, 0x95, 0x6b, 0xbf, 0x24, 0xba, 0xf1, 0xbf, 0x67, 0x6e, 0xbe, 0xbf,
  0xdc, 0x89, 0x03, 0xc0, 0x00, 0x00, 0x0e, 0x00, 0x14, 0x00, 0x04, 0x00,
  0x00, 0x00, 0x08, 0x00, 0x0c, 0x00, 0x10, 0x00, 0x0e, 0x00, 0x00, 0x00,
  0x10, 0x00, 0x00, 0x00, 0x02, 0x00, 0x00, 0x00, 0x10, 0x00, 0x00, 0x00,
  0x44, 0x00, 0x00, 0x00, 0x01, 0x00, 0x00, 0x00, 0x08, 0x00, 0x00, 0x00,
  0x31, 0x00, 0x00, 0x00, 0x73, 0x65, 0x71, 0x75, 0x65, 0x6e, 0x74, 0x69,
  0x61, 0x6c, 0x2f, 0x63, 0x6f, 0x6e, 0x76, 0x32, 0x64, 0x2f, 0x42, 0x69,
  0x61, 0x73, 0x41, 0x64, 0x64, 0x2f, 0x52, 0x65, 0x61, 0x64, 0x56, 0x61,
  0x72, 0x69, 0x61, 0x62, 0x6c, 0x65, 0x4f, 0x70, 0x2f, 0x72, 0x65, 0x73,
  0x6f, 0x75, 0x72, 0x63, 0x65, 0x00, 0x00, 0x00, 0x90, 0xff, 0xff, 0xff,
  0x14, 0x00, 0x18, 0x00, 0x04, 0x00, 0x00, 0x00, 0x08, 0x00, 0x0c, 0x00,
  0x10, 0x00, 0x00, 0x00, 0x00, 0x00, 0x14, 0x00, 0x14, 0x00, 0x00, 0x00,
  0x14, 0x00, 0x00, 0x00, 0x01, 0x00, 0x00, 0x00, 0x20, 0x00, 0x00, 0x00,
  0x44, 0x00, 0x00, 0x00, 0x2c, 0x00, 0x00, 0x00, 0x04, 0x00, 0x00, 0x00,
  0x01, 0x00, 0x00, 0x00, 0x40, 0x00, 0x00, 0x00, 0x03, 0x00, 0x00, 0x00,
  0x01, 0x00, 0x00, 0x00, 0x0c, 0x00, 0x00, 0x00, 0x63, 0x6f, 0x6e, 0x76,
  0x32, 0x64, 0x5f, 0x69, 0x6e, 0x70, 0x75, 0x74, 0x00, 0x00, 0x00, 0x00,
  0x04, 0x00, 0x00, 0x00, 0xff, 0xff, 0xff, 0xff, 0x40, 0x00, 0x00, 0x00,
  0x03, 0x00, 0x00, 0x00, 0x01, 0x00, 0x00, 0x00, 0xfc, 0xff, 0xff, 0xff,
  0x04, 0x00, 0x04, 0x00, 0x04, 0x00, 0x00, 0x00
};

unsigned int model_tflite_len = 13052;// Fill the int in `src/model.cc` here